<unk>	0
<s>	0
</s>	0
</h>	0
%	0
:	0
"	0
!	0
$	0
?	0
0	0
1	0
2	0
3	0
4	0
5	0
6	0
7	0
8	0
9	0
▁t	-0
▁a	-1
he	-2
in	-3
▁the	-4
re	-5
▁s	-6
▁c	-7
en	-8
ing	-9
er	-10
▁to	-11
nd	-12
is	-13
on	-14
it	-15
▁p	-16
▁w	-17
or	-18
▁f	-19
▁b	-20
es	-21
ed	-22
ha	-23
▁and	-24
▁o	-25
at	-26
al	-27
▁m	-28
ro	-29
▁in	-30
▁d	-31
an	-32
▁is	-33
ent	-34
▁ha	-35
▁l	-36
▁n	-37
▁re	-38
om	-39
▁of	-40
ic	-41
ar	-42
▁e	-43
ion	-44
le	-45
▁be	-46
us	-47
▁ne	-48
ct	-49
il	-50
ve	-51
▁are	-52
as	-53
un	-54
ut	-55
▁st	-56
▁for	-57
▁com	-58
ho	-59
▁g	-60
▁new	-61
▁has	-62
ity	-63
im	-64
ol	-65
id	-66
▁pro	-67
ra	-68
et	-69
ir	-70
ers	-71
ig	-72
▁lo	-73
ur	-74
op	-75
▁ex	-76
▁it	-77
ce	-78
ul	-79
ver	-80
ation	-81
▁he	-82
ak	-83
▁tha	-84
ect	-85
▁h	-86
▁res	-87
ts	-88
ment	-89
ill	-90
ay	-91
▁that	-92
ud	-93
ess	-94
am	-95
▁wit	-96
▁con	-97
▁their	-98
▁been	-99
any	-100
up	-101
▁comm	-102
her	-103
▁on	-104
▁de	-105
▁wor	-106
ad	-107
▁with	-108
ly	-109
ch	-110
▁loc	-111
ies	-112
▁pe	-113
▁local	-114
▁exp	-115
▁commun	-116
ople	-117
st	-118
▁people	-119
▁al	-120
if	-121
▁im	-122
ure	-123
und	-124
ge	-125
▁community	-126
▁was	-127
king	-128
▁imp	-129
ow	-130
ore	-131
▁te	-132
ort	-133
▁dis	-134
est	-135
iv	-136
ents	-137
▁an	-138
▁comp	-139
▁we	-140
ate	-141
▁have	-142
▁se	-143
ot	-144
▁sp	-145
▁ca	-146
▁stud	-147
ble	-148
igh	-149
▁en	-150
ter	-151
▁co	-152
▁v	-153
ake	-154
▁will	-155
▁sc	-156
▁pl	-157
▁at	-158
ff	-159
▁ho	-160
▁cha	-161
▁th	-162
ant	-163
qu	-164
▁many	-165
ear	-166
ive	-167
▁hel	-168
ac	-169
co	-170
▁fo	-171
du	-172
ial	-173
ected	-174
▁ab	-175
ug	-176
▁r	-177
se	-178
od	-179
th	-180
pp	-181
▁city	-182
▁help	-183
ome	-184
▁un	-185
▁by	-186
out	-187
▁caus	-188
▁they	-189
▁us	-190
▁as	-191
ie	-192
▁about	-193
cc	-194
▁wh	-195
ign	-196
▁inc	-197
and	-198
▁more	-199
all	-200
rom	-201
ark	-202
ind	-203
▁go	-204
▁expected	-205
ain	-206
red	-207
▁working	-208
▁from	-209
ust	-210
iz	-211
os	-212
res	-213
▁company	-214
▁pol	-215
▁but	-216
▁who	-217
reat	-218
▁y	-219
▁off	-220
ions	-221
▁its	-222
▁make	-223
▁le	-224
▁ad	-225
ren	-226
ich	-227
▁cl	-228
port	-229
um	-230
▁gro	-231
▁tra	-232
ue	-233
ist	-234
ors	-235
▁which	-236
ild	-237
og	-238
em	-239
▁resid	-240
end	-241
wn	-242
ient	-243
ard	-244
▁fe	-245
ugh	-246
act	-247
▁sa	-248
▁j	-249
▁bus	-250
▁ev	-251
▁rec	-252
ri	-253
vel	-254
▁so	-255
very	-256
▁being	-257
▁su	-258
ice	-259
▁study	-260
ld	-261
iness	-262
te	-263
▁ar	-264
get	-265
able	-266
▁sup	-267
ry	-268
ll	-269
▁out	-270
ide	-271
▁business	-272
art	-273
▁k	-274
▁work	-275
▁residents	-276
ther	-277
ists	-278
▁cont	-279
ful	-280
ous	-281
orm	-282
aking	-283
ong	-284
▁fam	-285
ations	-286
olog	-287
▁can	-288
▁sho	-289
▁up	-290
ities	-291
▁ra	-292
lo	-293
▁tech	-294
ag	-295
▁eff	-296
▁str	-297
▁techn	-298
▁disco	-299
fe	-300
ight	-301
▁famil	-302
▁op	-303
▁la	-304
▁ser	-305
ine	-306
ction	-307
ans	-308
▁chan	-309
age	-310
one	-311
ip	-312
▁team	-313
read	-314
▁prov	-315
ast	-316
▁inv	-317
▁found	-318
▁other	-319
als	-320
▁exc	-321
gether	-322
▁together	-323
ance	-324
▁find	-325
▁were	-326
▁impro	-327
▁des	-328
▁spe	-329
▁exper	-330
ings	-331
so	-332
▁or	-333
ime	-334
▁redu	-335
ning	-336
▁support	-337
▁ro	-338
lic	-339
▁students	-340
▁them	-341
own	-342
▁also	-343
▁prog	-344
▁over	-345
ram	-346
▁bu	-347
▁em	-348
▁br	-349
▁excit	-350
▁acc	-351
ology	-352
▁me	-353
ling	-354
▁produ	-355
velop	-356
▁pre	-357
▁develop	-358
ep	-359
ace	-360
ious	-361
ular	-362
▁group	-363
▁int	-364
▁all	-365
▁park	-366
ved	-367
ater	-368
ire	-369
ress	-370
▁tho	-371
▁plan	-372
▁technology	-373
▁year	-374
▁program	-375
▁scho	-376
▁att	-377
ack	-378
cial	-379
ck	-380
rough	-381
ence	-382
yst	-383
vern	-384
▁qu	-385
ase	-386
▁govern	-387
ass	-388
▁scient	-389
ating	-390
ated	-391
alth	-392
ition	-393
ward	-394
▁government	-395
▁way	-396
ise	-397
▁family	-398
▁some	-399
unt	-400
ub	-401
▁school	-402
▁improve	-403
cer	-404
ident	-405
▁area	-406
▁pop	-407
▁dif	-408
▁app	-409
ade	-410
▁health	-411
▁design	-412
▁excited	-413
ced	-414
ces	-415
▁ma	-416
▁need	-417
ific	-418
ature	-419
▁this	-420
ges	-421
▁impact	-422
▁get	-423
▁reduce	-424
▁hop	-425
▁art	-426
ety	-427
ving	-428
▁sign	-429
▁tr	-430
iron	-431
▁env	-432
hed	-433
ironment	-434
▁environment	-435
▁product	-436
▁mo	-437
▁incl	-438
▁rest	-439
▁cr	-440
form	-441
▁food	-442
▁jo	-443
▁popular	-444
▁scientists	-445
▁high	-446
▁made	-447
ering	-448
ult	-449
▁har	-450
▁loo	-451
ject	-452
▁lead	-453
▁af	-454
▁und	-455
▁build	-456
ystem	-457
▁includ	-458
▁sever	-459
▁see	-460
▁bo	-461
ach	-462
ised	-463
▁several	-464
▁event	-465
ife	-466
ution	-467
ke	-468
▁am	-469
ccess	-470
▁success	-471
▁polic	-472
▁open	-473
▁do	-474
▁import	-475
▁take	-476
▁pos	-477
ready	-478
▁already	-479
▁not	-480
▁own	-481
▁concer	-482
ks	-483
uld	-484
▁cons	-485
▁after	-486
ves	-487
▁law	-488
round	-489
▁adv	-490
▁ag	-491
ory	-492
▁prom	-493
▁dec	-494
sp	-495
▁mus	-496
ail	-497
ather	-498
▁pub	-499
▁resear	-500
▁maj	-501
ical	-502
▁her	-503
▁making	-504
▁major	-505
▁med	-506
▁char	-507
▁now	-508
▁causing	-509
ted	-510
▁man	-511
▁policy	-512
feren	-513
▁invest	-514
▁years	-515
▁gr	-516
ices	-517
iqu	-518
▁prot	-519
▁recent	-520
▁his	-521
ract	-522
▁project	-523
▁act	-524
▁system	-525
▁lear	-526
erg	-527
▁rem	-528
ting	-529
▁bring	-530
▁sm	-531
▁concern	-532
▁show	-533
ick	-534
ays	-535
come	-536
▁pat	-537
▁time	-538
▁serv	-539
lie	-540
▁bet	-541
ru	-542
we	-543
▁cle	-544
▁per	-545
br	-546
▁home	-547
▁looking	-548
▁iss	-549
▁incre	-550
▁public	-551
▁differen	-552
ives	-553
▁signific	-554
▁sur	-555
▁ce	-556
ugg	-557
pl	-558
▁col	-559
▁sk	-560
▁call	-561
▁big	-562
▁change	-563
▁discovery	-564
▁significant	-565
no	-566
▁water	-567
▁into	-568
hers	-569
▁ind	-570
▁caused	-571
▁cust	-572
▁those	-573
ging	-574
▁had	-575
ens	-576
▁thr	-577
arm	-578
pa	-579
orts	-580
blem	-581
▁part	-582
its	-583
ame	-584
▁resp	-585
▁fut	-586
▁ch	-587
▁problem	-588
▁whe	-589
urn	-590
▁aff	-591
▁designed	-592
ments	-593
▁future	-594
▁feature	-595
▁custom	-596
▁sol	-597
▁town	-598
▁reg	-599
▁she	-600
▁weather	-601
▁anim	-602
ab	-603
ike	-604
▁come	-605
ique	-606
▁used	-607
▁police	-608
▁life	-609
▁add	-610
enc	-611
▁bre	-612
▁sha	-613
ness	-614
ased	-615
▁contin	-616
▁fin	-617
▁car	-618
▁provide	-619
▁saf	-620
▁treat	-621
▁mon	-622
ience	-623
▁forward	-624
▁strugg	-625
illed	-626
av	-627
les	-628
▁great	-629
ials	-630
▁grate	-631
▁provid	-632
▁grateful	-633
▁still	-634
ally	-635
▁could	-636
▁businesses	-637
ib	-638
▁others	-639
ier	-640
▁world	-641
▁cause	-642
pt	-643
xt	-644
▁hard	-645
▁try	-646
aur	-647
ary	-648
▁vis	-649
ize	-650
▁cre	-651
▁back	-652
▁restaur	-653
el	-654
way	-655
▁use	-656
con	-657
▁fl	-658
▁learn	-659
itive	-660
▁charity	-661
gan	-662
ighb	-663
▁neighb	-664
▁aut	-665
aut	-666
▁investig	-667
▁building	-668
riend	-669
▁pr	-670
▁play	-671
▁creat	-672
ising	-673
▁spec	-674
▁ke	-675
ized	-676
ok	-677
▁rev	-678
ft	-679
▁fire	-680
▁music	-681
▁count	-682
▁eas	-683
▁det	-684
▁any	-685
▁no	-686
▁tre	-687
unc	-688
▁offic	-689
▁emp	-690
▁safe	-691
▁prev	-692
ict	-693
▁conf	-694
▁effect	-695
ential	-696
ative	-697
▁around	-698
▁every	-699
▁dam	-700
▁customers	-701
▁comple	-702
▁av	-703
ert	-704
loy	-705
▁happ	-706
▁organ	-707
▁than	-708
▁break	-709
vered	-710
▁job	-711
com	-712
▁restaurant	-713
oy	-714
ower	-715
uring	-716
vers	-717
▁down	-718
▁dr	-719
ord	-720
▁auth	-721
ural	-722
ible	-723
▁next	-724
▁grow	-725
conom	-726
hes	-727
▁econom	-728
▁using	-729
▁experts	-730
ffic	-731
tern	-732
▁compet	-733
ues	-734
joy	-735
▁wee	-736
▁reco	-737
iving	-738
▁quick	-739
less	-740
▁pers	-741
nown	-742
hip	-743
▁visit	-744
▁reve	-745
ite	-746
ility	-747
cess	-748
▁say	-749
▁safety	-750
ange	-751
▁continue	-752
ality	-753
▁one	-754
ap	-755
▁clean	-756
▁friend	-757
iety	-758
hing	-759
▁pass	-760
▁struggling	-761
▁win	-762
▁unique	-763
▁employ	-764
▁ed	-765
▁spark	-766
▁po	-767
▁yo	-768
uc	-769
▁hist	-770
▁development	-771
▁small	-772
▁species	-773
▁offering	-774
▁researc	-775
▁opp	-776
ile	-777
ura	-778
▁farm	-779
▁pot	-780
ency	-781
▁don	-782
▁month	-783
▁stay	-784
▁cond	-785
▁place	-786
▁wha	-787
▁thrilled	-788
▁lives	-789
▁power	-790
▁enjoy	-791
lect	-792
lebr	-793
▁celebr	-794
▁positive	-795
anding	-796
ands	-797
aster	-798
▁storm	-799
▁child	-800
▁long	-801
▁including	-802
▁author	-803
ures	-804
ults	-805
▁store	-806
▁trans	-807
▁importance	-808
ged	-809
▁protect	-810
▁traffic	-811
▁fac	-812
ets	-813
oney	-814
▁researchers	-815
ival	-816
ics	-817
ates	-818
▁special	-819
▁student	-820
ene	-821
▁how	-822
▁activ	-823
▁what	-824
▁coming	-825
▁deb	-826
▁che	-827
▁belie	-828
▁become	-829
▁aim	-830
▁planning	-831
ang	-832
ination	-833
▁discovered	-834
▁rele	-835
▁well	-836
▁money	-837
▁dem	-838
▁ac	-839
▁cent	-840
cus	-841
▁changes	-842
ees	-843
▁better	-844
ivers	-845
▁among	-846
▁efforts	-847
▁potential	-848
▁due	-849
▁trying	-850
▁end	-851
▁again	-852
ash	-853
ital	-854
▁hit	-855
▁met	-856
▁inst	-857
uge	-858
ills	-859
▁ur	-860
▁good	-861
▁country	-862
▁rel	-863
▁mark	-864
▁report	-865
▁care	-866
▁beaut	-867
▁calling	-868
erst	-869
▁contro	-870
▁educ	-871
ss	-872
▁neighbor	-873
▁keep	-874
▁through	-875
▁create	-876
▁soon	-877
▁start	-878
▁taking	-879
▁important	-880
▁animals	-881
▁vol	-882
erm	-883
▁when	-884
▁cro	-885
ree	-886
▁results	-887
▁features	-888
▁inform	-889
ons	-890
▁rece	-891
▁such	-892
aren	-893
urs	-894
yc	-895
ung	-896
▁meet	-897
ield	-898
▁difference	-899
akes	-900
hood	-901
▁fund	-902
▁allow	-903
▁services	-904
▁increase	-905
ual	-906
use	-907
ian	-908
lement	-909
▁lot	-910
▁damage	-911
▁test	-912
▁prop	-913
▁products	-914
▁enco	-915
▁game	-916
▁dev	-917
ights	-918
▁var	-919
▁under	-920
▁underst	-921
▁months	-922
ber	-923
▁able	-924
▁fest	-925
▁developed	-926
▁sparked	-927
▁set	-928
▁wild	-929
▁may	-930
ruction	-931
▁hoping	-932
▁person	-933
▁huge	-934
are	-935
▁sec	-936
ught	-937
day	-938
line	-939
▁organiz	-940
iss	-941
▁ent	-942
▁decis	-943
▁issue	-944
low	-945
▁quickly	-946
ote	-947
▁ear	-948
▁teac	-949
▁const	-950
▁causes	-951
▁findings	-952
ients	-953
▁action	-954
▁train	-955
▁opened	-956
▁hom	-957
▁invol	-958
▁encoura	-959
rest	-960
▁ens	-961
▁clim	-962
▁proud	-963
▁strong	-964
rought	-965
ides	-966
▁homes	-967
ants	-968
unte	-969
▁dise	-970
▁road	-971
▁perform	-972
▁flo	-973
▁lar	-974
▁nat	-975
▁war	-976
iew	-977
▁volunte	-978
▁officials	-979
▁old	-980
▁uses	-981
cha	-982
▁natural	-983
▁insp	-984
▁implement	-985
▁providing	-986
▁class	-987
▁attract	-988
▁hosp	-989
▁sh	-990
ish	-991
▁research	-992
▁visitors	-993
▁just	-994
▁val	-995
chie	-996
▁neighborhood	-997
▁field	-998
fic	-999
led	-1000
▁service	-1001
cing	-1002
▁concerns	-1003
▁authorities	-1004
▁employees	-1005
pe	-1006
▁friends	-1007
▁incident	-1008
▁hope	-1009
▁left	-1010
▁seen	-1011
▁festival	-1012
▁mem	-1013
▁prevent	-1014
▁gen	-1015
▁inj	-1016
▁achie	-1017
▁social	-1018
▁easier	-1019
pr	-1020
ages	-1021
ps	-1022
▁dest	-1023
▁families	-1024
▁children	-1025
▁indust	-1026
▁step	-1027
ortun	-1028
through	-1029
▁breakthrough	-1030
▁affected	-1031
ax	-1032
▁market	-1033
▁ensure	-1034
▁fun	-1035
ink	-1036
▁expl	-1037
▁mater	-1038
▁hum	-1039
▁owner	-1040
ery	-1041
▁even	-1042
▁pres	-1043
▁emerg	-1044
▁poss	-1045
coming	-1046
▁avail	-1047
ied	-1048
▁economy	-1049
▁waste	-1050
▁equ	-1051
▁treatment	-1052
itic	-1053
▁inte	-1054
▁center	-1055
▁urging	-1056
▁opportun	-1057
ication	-1058
mp	-1059
▁available	-1060
▁released	-1061
llen	-1062
▁challen	-1063
▁education	-1064
▁debate	-1065
▁problems	-1066
▁wo	-1067
▁hospital	-1068
itions	-1069
ficult	-1070
▁difficult	-1071
▁determ	-1072
ergy	-1073
iled	-1074
▁while	-1075
▁experience	-1076
▁launc	-1077
hle	-1078
▁cam	-1079
▁bene	-1080
▁dep	-1081
▁information	-1082
▁skills	-1083
▁variety	-1084
▁sit	-1085
▁live	-1086
▁ext	-1087
ds	-1088
▁meant	-1089
▁form	-1090
▁inf	-1091
▁fore	-1092
▁anno	-1093
▁del	-1094
▁athle	-1095
▁owners	-1096
▁goal	-1097
hout	-1098
▁different	-1099
▁energy	-1100
▁fact	-1101
▁air	-1102
rib	-1103
▁effic	-1104
ia	-1105
▁competition	-1106
atch	-1107
ived	-1108
▁jobs	-1109
▁bra	-1110
▁ret	-1111
ilities	-1112
▁happy	-1113
ars	-1114
▁relie	-1115
▁commit	-1116
ried	-1117
▁announ	-1118
▁dist	-1119
olution	-1120
▁week	-1121
▁hi	-1122
▁stre	-1123
nov	-1124
▁lea	-1125
▁range	-1126
ween	-1127
▁between	-1128
▁large	-1129
▁construction	-1130
▁launched	-1131
ester	-1132
ric	-1133
▁poll	-1134
▁opt	-1135
▁thous	-1136
▁benef	-1137
air	-1138
ines	-1139
urces	-1140
▁everyone	-1141
▁attend	-1142
▁trad	-1143
▁advised	-1144
ose	-1145
▁these	-1146
▁pra	-1147
▁rain	-1148
▁thousands	-1149
eling	-1150
▁artist	-1151
ute	-1152
▁book	-1153
▁situ	-1154
▁like	-1155
iful	-1156
ention	-1157
▁num	-1158
▁cur	-1159
used	-1160
▁ref	-1161
▁issues	-1162
fore	-1163
▁environmental	-1164
▁climate	-1165
▁investigation	-1166
osed	-1167
▁accident	-1168
ense	-1169
▁address	-1170
▁offers	-1171
▁recyc	-1172
hib	-1173
▁young	-1174
ne	-1175
▁run	-1176
ivid	-1177
▁beautiful	-1178
▁aims	-1179
▁reso	-1180
ager	-1181
▁volunteers	-1182
▁helping	-1183
▁gener	-1184
den	-1185
▁achieve	-1186
▁solution	-1187
▁tw	-1188
▁controvers	-1189
▁very	-1190
rup	-1191
▁yester	-1192
▁yesterday	-1193
▁tal	-1194
iting	-1195
▁travel	-1196
▁comb	-1197
▁known	-1198
▁anc	-1199
▁land	-1200
▁decision	-1201
▁plant	-1202
▁areas	-1203
▁region	-1204
▁ins	-1205
▁access	-1206
▁reveal	-1207
▁brought	-1208
▁events	-1209
▁di	-1210
▁against	-1211
▁wa	-1212
▁before	-1213
erc	-1214
ational	-1215
▁mod	-1216
▁aw	-1217
▁hab	-1218
▁disease	-1219
▁serious	-1220
▁emergency	-1221
▁move	-1222
▁industry	-1223
▁history	-1224
▁each	-1225
▁held	-1226
▁ancient	-1227
▁consid	-1228
▁feeling	-1229
▁disaster	-1230
▁award	-1231
▁animal	-1232
▁rare	-1233
▁gra	-1234
▁getting	-1235
▁resc	-1236
▁cho	-1237
ences	-1238
▁ris	-1239
▁without	-1240
▁cor	-1241
▁valu	-1242
▁bl	-1243
rodu	-1244
▁gu	-1245
▁wel	-1246
ym	-1247
aint	-1248
▁exhib	-1249
▁ban	-1250
▁exerc	-1251
▁trend	-1252
ism	-1253
▁day	-1254
▁patients	-1255
wor	-1256
erv	-1257
vi	-1258
▁ph	-1259
ys	-1260
▁shel	-1261
ilt	-1262
▁wr	-1263
▁sim	-1264
▁process	-1265
▁helps	-1266
▁finan	-1267
ustain	-1268
ished	-1269
ired	-1270
▁bot	-1271
▁top	-1272
▁paren	-1273
▁feel	-1274
estion	-1275
▁sustain	-1276
▁install	-1277
▁boo	-1278
▁our	-1279
▁situation	-1280
▁ways	-1281
▁facing	-1282
▁requ	-1283
ertain	-1284
▁activities	-1285
▁prof	-1286
▁protest	-1287
▁hand	-1288
▁hopes	-1289
▁fr	-1290
▁space	-1291
▁farmers	-1292
ems	-1293
ured	-1294
ins	-1295
▁revolution	-1296
▁spread	-1297
▁raise	-1298
ered	-1299
▁displ	-1300
▁experi	-1301
aken	-1302
▁spot	-1303
▁resident	-1304
▁last	-1305
▁ty	-1306
uct	-1307
▁record	-1308
▁during	-1309
ify	-1310
▁quality	-1311
aim	-1312
▁flood	-1313
▁effective	-1314
▁beha	-1315
▁fol	-1316
▁introdu	-1317
ases	-1318
▁ass	-1319
anced	-1320
▁sal	-1321
▁crime	-1322
▁ded	-1323
bers	-1324
▁eng	-1325
int	-1326
usp	-1327
▁gard	-1328
▁implemented	-1329
▁announced	-1330
▁remind	-1331
ix	-1332
ond	-1333
▁heav	-1334
▁share	-1335
▁parents	-1336
▁medical	-1337
▁muse	-1338
▁focus	-1339
▁museum	-1340
▁pollution	-1341
▁confident	-1342
▁inter	-1343
▁reveals	-1344
▁histor	-1345
▁plans	-1346
▁resources	-1347
▁rep	-1348
▁pract	-1349
▁partic	-1350
▁media	-1351
▁conditions	-1352
▁past	-1353
▁pay	-1354
▁susp	-1355
▁wom	-1356
ger	-1357
life	-1358
▁healthy	-1359
ath	-1360
▁best	-1361
▁ob	-1362
▁number	-1363
▁sw	-1364
▁revealed	-1365
▁few	-1366
ids	-1367
idesp	-1368
▁widesp	-1369
▁widespread	-1370
▁min	-1371
▁supp	-1372
▁read	-1373
▁having	-1374
▁accused	-1375
▁wind	-1376
▁taken	-1377
ires	-1378
ked	-1379
rupt	-1380
ined	-1381
▁appro	-1382
▁two	-1383
▁investigating	-1384
▁considering	-1385
▁clot	-1386
▁light	-1387
▁saying	-1388
▁pattern	-1389
▁worried	-1390
ental	-1391
▁ap	-1392
▁controversy	-1393
▁init	-1394
▁allows	-1395
▁says	-1396
▁provides	-1397
▁hero	-1398
▁highway	-1399
rap	-1400
▁occ	-1401
uch	-1402
▁online	-1403
▁financial	-1404
▁possible	-1405
▁behavi	-1406
sel	-1407
▁transport	-1408
▁human	-1409
ries	-1410
▁hailed	-1411
ruct	-1412
▁close	-1413
▁dat	-1414
▁cong	-1415
▁training	-1416
▁counc	-1417
ner	-1418
▁line	-1419
▁gl	-1420
▁affect	-1421
▁meantime	-1422
▁miss	-1423
▁weeks	-1424
now	-1425
▁efficient	-1426
▁free	-1427
bre	-1428
▁attention	-1429
▁surpr	-1430
▁sub	-1431
▁council	-1432
▁fans	-1433
▁valuable	-1434
▁claim	-1435
▁if	-1436
fect	-1437
uck	-1438
▁lost	-1439
lications	-1440
lection	-1441
▁follow	-1442
ories	-1443
▁fres	-1444
▁cult	-1445
▁days	-1446
▁include	-1447
▁includes	-1448
▁leader	-1449
▁ve	-1450
▁consum	-1451
oid	-1452
▁oper	-1453
cuss	-1454
▁necess	-1455
avor	-1456
▁restore	-1457
pped	-1458
iven	-1459
▁athlete	-1460
▁clear	-1461
▁recover	-1462
gn	-1463
ises	-1464
▁leaders	-1465
pair	-1466
▁fur	-1467
▁level	-1468
wever	-1469
▁however	-1470
▁complex	-1471
▁behavior	-1472
▁heavy	-1473
▁discuss	-1474
▁doct	-1475
ason	-1476
▁raised	-1477
▁advanced	-1478
▁prec	-1479
known	-1480
▁tradition	-1481
ven	-1482
▁ill	-1483
▁promote	-1484
go	-1485
▁materials	-1486
▁ful	-1487
▁exercise	-1488
▁garden	-1489
▁benefits	-1490
▁interest	-1491
▁prepa	-1492
▁where	-1493
ten	-1494
▁politic	-1495
▁bro	-1496
▁myst	-1497
▁loss	-1498
▁initi	-1499
▁demand	-1500
▁ident	-1501
ued	-1502
▁wildlife	-1503
▁metho	-1504
▁learning	-1505
▁previous	-1506
ending	-1507
▁most	-1508
▁mar	-1509
▁reducing	-1510
▁shelter	-1511
fort	-1512
rem	-1513
▁there	-1514
▁avoid	-1515
▁data	-1516
▁effects	-1517
▁reminder	-1518
▁leaving	-1519
▁temp	-1520
▁successful	-1521
▁studying	-1522
▁night	-1523
leg	-1524
▁items	-1525
▁elect	-1526
▁makes	-1527
▁workers	-1528
idents	-1529
do	-1530
▁par	-1531
▁increased	-1532
onse	-1533
▁response	-1534
▁promising	-1535
▁transportation	-1536
med	-1537
▁result	-1538
▁stress	-1539
▁tour	-1540
▁hik	-1541
▁praised	-1542
▁understand	-1543
▁understanding	-1544
▁expert	-1545
asing	-1546
▁vict	-1547
ned	-1548
▁crow	-1549
▁respond	-1550
▁hold	-1551
ament	-1552
▁seeing	-1553
▁series	-1554
ability	-1555
hind	-1556
▁equip	-1557
▁cra	-1558
▁display	-1559
▁behind	-1560
▁save	-1561
▁shown	-1562
▁individ	-1563
aring	-1564
▁effort	-1565
▁teacher	-1566
▁committed	-1567
▁equipment	-1568
▁wide	-1569
▁caught	-1570
▁revolutionize	-1571
▁believe	-1572
▁sure	-1573
▁put	-1574
▁review	-1575
urity	-1576
by	-1577
▁fresh	-1578
▁enjoying	-1579
imes	-1580
▁tro	-1581
▁further	-1582
▁gain	-1583
▁amo	-1584
▁hours	-1585
▁involved	-1586
vere	-1587
▁noise	-1588
▁kids	-1589
▁users	-1590
▁ann	-1591
▁medic	-1592
▁meas	-1593
▁unt	-1594
▁ste	-1595
▁introduced	-1596
▁growing	-1597
▁mayor	-1598
▁er	-1599
idence	-1600
▁recogn	-1601
▁sports	-1602
aff	-1603
▁sum	-1604
be	-1605
▁type	-1606
▁certain	-1607
▁peace	-1608
▁discover	-1609
▁passed	-1610
app	-1611
▁low	-1612
▁mental	-1613
▁near	-1614
▁teachers	-1615
▁received	-1616
▁buildings	-1617
▁mess	-1618
▁severe	-1619
▁built	-1620
▁comes	-1621
ground	-1622
hen	-1623
▁ground	-1624
▁vi	-1625
ats	-1626
▁disp	-1627
ervation	-1628
ivity	-1629
▁bur	-1630
▁respons	-1631
izing	-1632
▁congestion	-1633
ators	-1634
▁much	-1635
▁woman	-1636
▁security	-1637
▁wal	-1638
▁recycling	-1639
▁explore	-1640
▁sl	-1641
▁him	-1642
▁finally	-1643
▁kind	-1644
▁things	-1645
▁innov	-1646
▁compan	-1647
▁bir	-1648
▁opportunities	-1649
▁fight	-1650
▁cour	-1651
▁habit	-1652
▁eco	-1653
▁turn	-1654
here	-1655
aily	-1656
▁daily	-1657
▁gam	-1658
▁warning	-1659
▁away	-1660
▁happen	-1661
▁repair	-1662
▁conn	-1663
work	-1664
ited	-1665
ron	-1666
urce	-1667
▁started	-1668
ashion	-1669
▁harm	-1670
ustr	-1671
erve	-1672
▁necessary	-1673
▁rescue	-1674
▁politician	-1675
▁finding	-1676
▁comfort	-1677
▁mot	-1678
▁schools	-1679
▁alike	-1680
▁bringing	-1681
▁particip	-1682
▁injur	-1683
▁fir	-1684
▁bank	-1685
▁firef	-1686
▁organization	-1687
▁neighbors	-1688
using	-1689
▁catch	-1690
▁depart	-1691
▁tas	-1692
▁created	-1693
▁track	-1694
▁anyone	-1695
▁fashion	-1696
paign	-1697
▁hid	-1698
▁amount	-1699
▁campaign	-1700
▁worked	-1701
▁growth	-1702
▁risk	-1703
▁neg	-1704
ians	-1705
▁trail	-1706
▁clothing	-1707
▁perfect	-1708
▁devast	-1709
aged	-1710
▁concerned	-1711
▁sustainable	-1712
▁won	-1713
▁flow	-1714
▁unknown	-1715
▁easy	-1716
az	-1717
▁regul	-1718
cy	-1719
ee	-1720
▁combination	-1721
ains	-1722
▁state	-1723
▁weekend	-1724
▁sense	-1725
▁led	-1726
▁foot	-1727
▁promised	-1728
▁economic	-1729
arch	-1730
▁aud	-1731
▁technique	-1732
▁only	-1733
areness	-1734
▁season	-1735
▁too	-1736
ple	-1737
▁nature	-1738
▁opens	-1739
oring	-1740
▁came	-1741
▁relief	-1742
▁profess	-1743
▁eager	-1744
▁awareness	-1745
▁collect	-1746
▁injured	-1747
▁reb	-1748
▁propert	-1749
▁conservation	-1750
inking	-1751
▁rall	-1752
▁until	-1753
▁want	-1754
▁steps	-1755
▁return	-1756
▁relax	-1757
▁initiative	-1758
▁case	-1759
▁ide	-1760
▁companies	-1761
▁mil	-1762
ided	-1763
uals	-1764
cking	-1765
▁myster	-1766
▁rul	-1767
▁streets	-1768
lars	-1769
▁shows	-1770
de	-1771
ken	-1772
▁complete	-1773
▁news	-1774
▁pred	-1775
▁traditional	-1776
▁members	-1777
ests	-1778
▁pie	-1779
▁highl	-1780
▁talent	-1781
▁levels	-1782
▁crit	-1783
▁offer	-1784
▁staff	-1785
▁boost	-1786
▁earth	-1787
▁rise	-1788
▁opportunity	-1789
mer	-1790
▁needs	-1791
▁teen	-1792
▁both	-1793
▁options	-1794
▁joy	-1795
▁dang	-1796
▁real	-1797
▁dedication	-1798
▁frustr	-1799
▁illness	-1800
▁early	-1801
▁safer	-1802
▁factory	-1803
ways	-1804
▁crowd	-1805
▁intern	-1806
▁fix	-1807
▁tool	-1808
▁delic	-1809
▁implications	-1810
▁recently	-1811
lling	-1812
▁fair	-1813
▁hidden	-1814
▁patterns	-1815
▁believed	-1816
▁exhibit	-1817
erature	-1818
ony	-1819
▁short	-1820
▁lit	-1821
▁challenges	-1822
▁disrupt	-1823
▁living	-1824
▁hon	-1825
▁tax	-1826
▁mysterious	-1827
▁sty	-1828
▁works	-1829
▁key	-1830
▁medicine	-1831
breaking	-1832
▁def	-1833
▁laws	-1834
thing	-1835
▁remote	-1836
▁roads	-1837
▁chaos	-1838
ci	-1839
▁desp	-1840
▁said	-1841
▁mov	-1842
▁completed	-1843
▁far	-1844
▁donations	-1845
rent	-1846
▁activity	-1847
▁pur	-1848
▁involves	-1849
▁drivers	-1850
oms	-1851
▁bud	-1852
▁destination	-1853
▁regular	-1854
▁firefight	-1855
▁stop	-1856
uild	-1857
▁would	-1858
▁favor	-1859
▁underway	-1860
▁addition	-1861
▁individuals	-1862
▁impress	-1863
▁previously	-1864
ring	-1865
▁firefighters	-1866
▁tire	-1867
▁called	-1868
▁house	-1869
ization	-1870
▁vac	-1871
autions	-1872
▁precautions	-1873
▁gre	-1874
▁think	-1875
▁beauty	-1876
▁adm	-1877
set	-1878
uing	-1879
▁meeting	-1880
▁device	-1881
▁arrest	-1882
▁sound	-1883
▁deal	-1884
lessly	-1885
aces	-1886
▁connect	-1887
▁annual	-1888
▁thought	-1889
▁know	-1890
▁acro	-1891
wards	-1892
▁forec	-1893
▁remo	-1894
man	-1895
▁search	-1896
▁outdo	-1897
▁story	-1898
▁department	-1899
chan	-1900
▁artists	-1901
▁temperature	-1902
selves	-1903
▁dra	-1904
pping	-1905
ribut	-1906
▁occur	-1907
rast	-1908
▁supply	-1909
▁performance	-1910
▁rebuild	-1911
▁given	-1912
ances	-1913
▁funds	-1914
▁dog	-1915
▁warm	-1916
ional	-1917
▁coup	-1918
▁men	-1919
▁likely	-1920
usion	-1921
▁stand	-1922
iver	-1923
▁pain	-1924
ily	-1925
▁across	-1926
angu	-1927
▁langu	-1928
▁acco	-1929
▁delicious	-1930
▁themselves	-1931
izes	-1932
▁determine	-1933
ining	-1934
▁control	-1935
cu	-1936
▁mill	-1937
▁journ	-1938
▁less	-1939
▁programs	-1940
▁manage	-1941
▁measures	-1942
▁relieved	-1943
▁thie	-1944
▁conduct	-1945
▁fa	-1946
▁dri	-1947
▁nearby	-1948
▁blo	-1949
▁material	-1950
▁give	-1951
▁funding	-1952
cked	-1953
▁fig	-1954
▁brid	-1955
▁view	-1956
▁ord	-1957
▁accom	-1958
▁cut	-1959
▁unf	-1960
▁brings	-1961
ructure	-1962
ually	-1963
▁critic	-1964
system	-1965
▁games	-1966
▁ecosystem	-1967
▁sym	-1968
▁determined	-1969
▁reach	-1970
ty	-1971
ored	-1972
▁despite	-1973
▁winds	-1974
▁homeless	-1975
▁secre	-1976
▁exam	-1977
▁regulations	-1978
▁resol	-1979
▁aimed	-1980
▁arr	-1981
▁recip	-1982
▁beach	-1983
▁reported	-1984
▁suspect	-1985
▁common	-1986
▁infrast	-1987
▁installed	-1988
▁budget	-1989
▁fit	-1990
▁es	-1991
▁patient	-1992
▁ever	-1993
▁celebrate	-1994
osp	-1995
going	-1996
▁infrastructure	-1997
▁full	-1998
▁ing	-1999
▁oce	-2000
▁movie	-2001
hips	-2002
▁right	-2003
ended	-2004
▁first	-2005
▁actions	-2006
▁face	-2007
▁approach	-2008
ls	-2009
▁mist	-2010
▁stra	-2011
▁altern	-2012
▁cit	-2013
omet	-2014
▁ages	-2015
▁lack	-2016
▁rout	-2017
▁stun	-2018
▁unco	-2019
▁driver	-2020
▁cerem	-2021
▁progress	-2022
▁mis	-2023
tes	-2024
▁atm	-2025
▁dire	-2026
▁apolog	-2027
oc	-2028
▁renov	-2029
▁sun	-2030
▁consumers	-2031
new	-2032
▁becoming	-2033
oned	-2034
▁civ	-2035
▁tirelessly	-2036
▁maint	-2037
aging	-2038
▁disapp	-2039
▁encouraged	-2040
▁atmosp	-2041
▁kindness	-2042
▁took	-2043
▁ongoing	-2044
lf	-2045
▁lat	-2046
▁expect	-2047
ibility	-2048
iring	-2049
▁devastating	-2050
▁ess	-2051
oking	-2052
▁accidents	-2053
▁univers	-2054
▁playground	-2055
▁cal	-2056
▁diet	-2057
▁helped	-2058
▁chef	-2059
▁expand	-2060
▁threat	-2061
ody	-2062
▁conse	-2063
▁arg	-2064
ulation	-2065
▁once	-2066
▁forecast	-2067
▁citiz	-2068
▁justice	-2069
▁sn	-2070
▁protesters	-2071
▁personal	-2072
▁hikers	-2073
▁extra	-2074
▁national	-2075
▁must	-2076
▁improved	-2077
lying	-2078
▁spent	-2079
▁love	-2080
▁evidence	-2081
▁ingred	-2082
ex	-2083
▁trash	-2084
▁carb	-2085
▁heat	-2086
▁bec	-2087
▁civil	-2088
▁increasing	-2089
▁source	-2090
▁done	-2091
▁express	-2092
▁flooding	-2093
▁lim	-2094
▁science	-2095
oration	-2096
▁shop	-2097
att	-2098
▁leg	-2099
▁planet	-2100
▁historic	-2101
sts	-2102
▁docu	-2103
ement	-2104
ying	-2105
fact	-2106
▁times	-2107
▁consequ	-2108
▁rules	-2109
▁atmosphere	-2110
▁fall	-2111
▁account	-2112
▁careful	-2113
▁decided	-2114
▁ceremony	-2115
andal	-2116
▁sto	-2117
▁somet	-2118
▁goods	-2119
▁doing	-2120
▁sent	-2121
▁coll	-2122
ables	-2123
ologists	-2124
▁cars	-2125
cap	-2126
mark	-2127
▁identify	-2128
▁showing	-2129
▁ends	-2130
▁encourage	-2131
ards	-2132
▁jud	-2133
unts	-2134
ately	-2135
▁requires	-2136
▁needed	-2137
▁groundbreaking	-2138
enced	-2139
▁carbon	-2140
▁consequences	-2141
▁viol	-2142
▁afford	-2143
▁supporting	-2144
ause	-2145
▁suppl	-2146
gers	-2147
back	-2148
▁achievement	-2149
cept	-2150
▁dol	-2151
▁summer	-2152
▁pho	-2153
▁cris	-2154
▁model	-2155
▁latest	-2156
asts	-2157
▁featured	-2158
▁rallies	-2159
▁missing	-2160
▁outra	-2161
▁homeown	-2162
ners	-2163
▁relations	-2164
▁plants	-2165
▁language	-2166
▁practices	-2167
▁decisions	-2168
▁faster	-2169
▁doctors	-2170
▁promot	-2171
▁role	-2172
ening	-2173
▁sold	-2174
▁something	-2175
▁ocean	-2176
▁claims	-2177
▁seeking	-2178
▁excitement	-2179
▁renew	-2180
ern	-2181
▁busy	-2182
▁alternative	-2183
▁goals	-2184
▁rally	-2185
▁delays	-2186
hus	-2187
▁recovery	-2188
▁players	-2189
▁deep	-2190
husi	-2191
▁enthusi	-2192
ilar	-2193
▁soft	-2194
▁fre	-2195
▁giving	-2196
▁peaceful	-2197
▁phot	-2198
▁sens	-2199
▁hopeful	-2200
▁bridge	-2201
ough	-2202
▁prepare	-2203
▁citizens	-2204
lished	-2205
▁sing	-2206
▁bar	-2207
chae	-2208
▁archae	-2209
▁unus	-2210
▁current	-2211
ming	-2212
▁closely	-2213
▁testament	-2214
▁landmark	-2215
uters	-2216
▁projects	-2217
▁inspired	-2218
▁rob	-2219
▁charact	-2220
▁organized	-2221
▁overall	-2222
iques	-2223
▁emot	-2224
▁popularity	-2225
▁contain	-2226
yed	-2227
▁downt	-2228
▁often	-2229
▁tested	-2230
▁pet	-2231
▁arrested	-2232
▁groups	-2233
▁method	-2234
ware	-2235
▁anx	-2236
comes	-2237
▁upset	-2238
▁beg	-2239
ceed	-2240
▁fail	-2241
▁z	-2242
▁towards	-2243
▁bravery	-2244
▁teach	-2245
estions	-2246
▁innovative	-2247
▁encouraging	-2248
ump	-2249
▁surround	-2250
▁figure	-2251
▁bi	-2252
▁surprising	-2253
▁you	-2254
▁pa	-2255
▁champ	-2256
care	-2257
▁trees	-2258
▁scene	-2259
loved	-2260
▁stunning	-2261
▁ingredients	-2262
▁showc	-2263
▁green	-2264
▁celebrating	-2265
▁sales	-2266
▁habitat	-2267
▁phys	-2268
▁passion	-2269
▁drought	-2270
▁millions	-2271
ified	-2272
▁feat	-2273
▁produce	-2274
ared	-2275
▁cost	-2276
▁customer	-2277
▁housing	-2278
▁fil	-2279
▁vir	-2280
lls	-2281
▁diseases	-2282
▁your	-2283
▁going	-2284
▁always	-2285
▁beloved	-2286
▁unusual	-2287
▁list	-2288
ator	-2289
▁wins	-2290
▁crops	-2291
▁bak	-2292
▁demanding	-2293
▁damaged	-2294
▁leading	-2295
▁speed	-2296
ept	-2297
ateg	-2298
▁aid	-2299
▁techniques	-2300
▁surve	-2301
enture	-2302
▁look	-2303
▁modern	-2304
▁temperatures	-2305
▁wrong	-2306
▁locals	-2307
▁teams	-2308
old	-2309
aries	-2310
ches	-2311
▁stores	-2312
▁confusion	-2313
▁party	-2314
▁favorite	-2315
▁aband	-2316
▁crisis	-2317
▁respect	-2318
▁tri	-2319
of	-2320
▁agree	-2321
▁compl	-2322
▁clos	-2323
ration	-2324
▁official	-2325
bs	-2326
row	-2327
igate	-2328
▁mat	-2329
uble	-2330
▁friendly	-2331
▁monit	-2332
▁highly	-2333
▁cand	-2334
▁menu	-2335
ift	-2336
▁countries	-2337
▁improving	-2338
▁welcoming	-2339
▁treatments	-2340
oin	-2341
▁gather	-2342
iency	-2343
▁questions	-2344
ciety	-2345
▁society	-2346
▁sle	-2347
pro	-2348
▁comfortable	-2349
▁head	-2350
▁famous	-2351
place	-2352
▁dishes	-2353
▁welcome	-2354
▁similar	-2355
▁disc	-2356
▁ant	-2357
▁should	-2358
▁athletes	-2359
▁supplies	-2360
▁detail	-2361
▁slow	-2362
▁feet	-2363
▁creating	-2364
▁sight	-2365
▁sug	-2366
▁divers	-2367
cks	-2368
▁capt	-2369
▁host	-2370
istance	-2371
encing	-2372
pected	-2373
▁office	-2374
hic	-2375
▁self	-2376
ibilities	-2377
▁prices	-2378
▁passen	-2379
▁fish	-2380
▁production	-2381
▁treas	-2382
▁fru	-2383
itation	-2384
▁bal	-2385
▁exciting	-2386
▁receive	-2387
▁injuries	-2388
▁organizers	-2389
▁hur	-2390
▁appre	-2391
▁attracting	-2392
▁unex	-2393
▁parks	-2394
▁classes	-2395
▁suff	-2396
▁abandoned	-2397
▁scientific	-2398
▁electric	-2399
▁pack	-2400
▁thanks	-2401
▁mount	-2402
▁condition	-2403
▁den	-2404
istic	-2405
▁chance	-2406
▁efficiency	-2407
▁destro	-2408
▁audience	-2409
▁critics	-2410
▁je	-2411
▁alleg	-2412
▁evac	-2413
▁upcoming	-2414
▁spend	-2415
▁because	-2416
▁evacu	-2417
▁responsible	-2418
▁forced	-2419
▁press	-2420
▁takes	-2421
▁glo	-2422
▁trouble	-2423
▁powerful	-2424
▁everything	-2425
▁mag	-2426
angered	-2427
▁anal	-2428
▁endangered	-2429
▁detect	-2430
quality	-2431
▁swe	-2432
lled	-2433
orit	-2434
▁closed	-2435
▁dollars	-2436
▁featuring	-2437
▁culture	-2438
▁got	-2439
▁habits	-2440
▁site	-2441
▁thinking	-2442
▁gall	-2443
▁occurred	-2444
▁mach	-2445
being	-2446
▁bul	-2447
▁victim	-2448
ifact	-2449
▁artifact	-2450
▁adj	-2451
▁did	-2452
▁essential	-2453
other	-2454
▁accompl	-2455
▁cold	-2456
issions	-2457
▁methods	-2458
▁international	-2459
▁factors	-2460
▁hund	-2461
▁hundred	-2462
▁link	-2463
▁body	-2464
▁allegations	-2465
▁rallying	-2466
▁accur	-2467
▁dispute	-2468
▁hair	-2469
▁attended	-2470
rict	-2471
▁unc	-2472
ograp	-2473
utions	-2474
▁communities	-2475
▁est	-2476
▁color	-2477
▁agency	-2478
▁filled	-2479
▁healthcare	-2480
▁rate	-2481
▁believes	-2482
ption	-2483
ison	-2484
▁fitness	-2485
▁challenge	-2486
side	-2487
▁chem	-2488
inal	-2489
▁recipe	-2490
▁heart	-2491
ufact	-2492
▁manufact	-2493
▁piece	-2494
▁signs	-2495
▁coach	-2496
changer	-2497
▁longer	-2498
▁doctor	-2499
▁therap	-2500
▁smo	-2501
▁employee	-2502
▁champions	-2503
fall	-2504
▁mor	-2505
▁disab	-2506
ding	-2507
▁couple	-2508
▁surv	-2509
▁election	-2510
▁outcome	-2511
▁club	-2512
rep	-2513
▁el	-2514
inist	-2515
▁lovers	-2516
▁victory	-2517
▁river	-2518
▁improvement	-2519
ached	-2520
bal	-2521
▁strateg	-2522
▁tourists	-2523
▁outdoor	-2524
▁solve	-2525
▁experienced	-2526
▁math	-2527
▁swim	-2528
▁tar	-2529
▁emb	-2530
▁farmer	-2531
▁bike	-2532
atic	-2533
▁collection	-2534
▁feed	-2535
astic	-2536
▁civilization	-2537
ented	-2538
▁costs	-2539
omen	-2540
▁within	-2541
▁highlight	-2542
▁operations	-2543
aling	-2544
▁insights	-2545
▁unexpected	-2546
▁archaeologists	-2547
ones	-2548
aper	-2549
▁hol	-2550
▁population	-2551
▁appreci	-2552
raction	-2553
▁ru	-2554
▁hundreds	-2555
▁conven	-2556
unch	-2557
▁passengers	-2558
▁nav	-2559
▁experiencing	-2560
▁bright	-2561
▁communication	-2562
▁creativity	-2563
like	-2564
▁receiving	-2565
the	-2566
▁destruction	-2567
▁bas	-2568
▁walking	-2569
▁prize	-2570
▁concert	-2571
▁unfair	-2572
▁former	-2573
▁engine	-2574
▁course	-2575
▁reporting	-2576
sc	-2577
▁disabilities	-2578
for	-2579
rene	-2580
ws	-2581
ince	-2582
▁danger	-2583
▁strange	-2584
▁breat	-2585
asters	-2586
▁advant	-2587
▁enough	-2588
▁stories	-2589
▁poor	-2590
▁dead	-2591
▁recom	-2592
▁ability	-2593
▁playing	-2594
▁orig	-2595
▁enthusiasts	-2596
aches	-2597
▁furn	-2598
▁mult	-2599
▁prep	-2600
▁flowers	-2601
▁reviews	-2602
▁waiting	-2603
▁sud	-2604
▁medication	-2605
▁divid	-2606
▁sudden	-2607
▁teenager	-2608
▁rid	-2609
▁software	-2610
▁administ	-2611
ointed	-2612
acy	-2613
▁asked	-2614
▁affordable	-2615
▁prepared	-2616
▁surge	-2617
▁tens	-2618
▁apologized	-2619
▁ter	-2620
ph	-2621
▁disruption	-2622
▁adjust	-2623
▁vide	-2624
lt	-2625
▁anxiety	-2626
rs	-2627
▁organizations	-2628
▁lif	-2629
ulate	-2630
ipped	-2631
▁cancer	-2632
▁affecting	-2633
enue	-2634
▁artifacts	-2635
▁li	-2636
▁advantage	-2637
▁interact	-2638
▁greater	-2639
▁commuters	-2640
▁hig	-2641
▁winner	-2642
icate	-2643
iest	-2644
▁ride	-2645
print	-2646
friend	-2647
aters	-2648
▁struggle	-2649
ows	-2650
▁inspire	-2651
▁changing	-2652
▁non	-2653
hel	-2654
gra	-2655
▁possibilities	-2656
▁emissions	-2657
▁experim	-2658
▁paid	-2659
▁property	-2660
▁phen	-2661
▁phenomen	-2662
▁spreading	-2663
▁veget	-2664
▁promise	-2665
▁indo	-2666
▁forest	-2667
▁dro	-2668
zz	-2669
▁recomm	-2670
ched	-2671
▁infl	-2672
ansion	-2673
▁camer	-2674
▁scul	-2675
▁propos	-2676
▁environmentally	-2677
▁fis	-2678
iture	-2679
ms	-2680
icated	-2681
ically	-2682
▁tree	-2683
▁frustrated	-2684
▁warn	-2685
reprene	-2686
▁sculpt	-2687
▁shaken	-2688
▁overcome	-2689
▁entreprene	-2690
▁safely	-2691
▁properties	-2692
▁developers	-2693
▁vehic	-2694
▁birds	-2695
▁challenging	-2696
▁colors	-2697
iction	-2698
▁hot	-2699
▁sleep	-2700
▁remain	-2701
▁following	-2702
▁object	-2703
▁ideas	-2704
▁underg	-2705
▁spee	-2706
▁conducted	-2707
ams	-2708
▁added	-2709
lines	-2710
▁norm	-2711
oth	-2712
▁promises	-2713
▁chur	-2714
igious	-2715
▁furniture	-2716
▁holid	-2717
▁pan	-2718
▁message	-2719
▁finds	-2720
▁ship	-2721
▁pri	-2722
▁vot	-2723
▁target	-2724
▁tough	-2725
▁outrage	-2726
▁solutions	-2727
els	-2728
▁donation	-2729
▁fle	-2730
pes	-2731
▁conflic	-2732
▁footprint	-2733
▁spending	-2734
ey	-2735
▁upd	-2736
illing	-2737
▁ready	-2738
▁musician	-2739
iers	-2740
▁comed	-2741
inated	-2742
▁indoors	-2743
ened	-2744
▁phenomenon	-2745
des	-2746
vest	-2747
▁complain	-2748
osity	-2749
▁cop	-2750
▁bad	-2751
▁tasks	-2752
▁rights	-2753
rect	-2754
▁creative	-2755
▁treasure	-2756
▁adventure	-2757
ell	-2758
ank	-2759
▁shortage	-2760
▁celebration	-2761
▁designs	-2762
bol	-2763
▁scandal	-2764
head	-2765
▁management	-2766
▁symbol	-2767
▁driving	-2768
▁homeowners	-2769
▁gaining	-2770
▁resolve	-2771
▁accessible	-2772
▁brain	-2773
▁continuing	-2774
friendly	-2775
whel	-2776
▁documents	-2777
▁books	-2778
ips	-2779
▁gym	-2780
▁scientist	-2781
▁issued	-2782
▁renewable	-2783
▁clo	-2784
agers	-2785
▁wood	-2786
ux	-2787
▁maintain	-2788
▁overwhel	-2789
apt	-2790
▁businessman	-2791
▁sharing	-2792
yal	-2793
▁il	-2794
▁illeg	-2795
▁healthier	-2796
▁purs	-2797
▁running	-2798
▁cru	-2799
▁remove	-2800
▁attraction	-2801
atives	-2802
▁court	-2803
▁lan	-2804
ury	-2805
▁debr	-2806
▁cooking	-2807
▁surf	-2808
▁player	-2809
▁debris	-2810
▁paint	-2811
▁suc	-2812
▁succeed	-2813
▁donating	-2814
▁side	-2815
▁amaz	-2816
▁stim	-2817
▁testing	-2818
▁recall	-2819
▁championship	-2820
▁eating	-2821
iate	-2822
▁release	-2823
▁purcha	-2824
▁heated	-2825
esty	-2826
▁sky	-2827
tle	-2828
▁band	-2829
iration	-2830
▁selling	-2831
▁recognized	-2832
▁injury	-2833
▁divided	-2834
▁apart	-2835
▁assistance	-2836
bo	-2837
ium	-2838
ider	-2839
olen	-2840
▁stolen	-2841
▁spir	-2842
io	-2843
▁cure	-2844
▁port	-2845
ush	-2846
▁investors	-2847
▁mind	-2848
▁stages	-2849
▁donated	-2850
▁relationships	-2851
▁location	-2852
▁libr	-2853
▁dre	-2854
umb	-2855
▁since	-2856
▁same	-2857
▁thro	-2858
▁another	-2859
▁downtown	-2860
▁term	-2861
▁ey	-2862
▁thrive	-2863
hold	-2864
▁seriously	-2865
▁hote	-2866
▁loved	-2867
▁recovering	-2868
▁candid	-2869
▁character	-2870
▁dedicated	-2871
ped	-2872
▁allowing	-2873
▁cities	-2874
▁trust	-2875
ale	-2876
▁minim	-2877
▁squ	-2878
▁lab	-2879
▁delay	-2880
po	-2881
rency	-2882
▁hands	-2883
▁harvest	-2884
▁physical	-2885
▁incidents	-2886
▁heard	-2887
▁recognition	-2888
▁remains	-2889
▁jewe	-2890
▁shared	-2891
▁widely	-2892
prof	-2893
idered	-2894
▁cleaning	-2895
▁burg	-2896
▁hor	-2897
▁adapt	-2898
▁ago	-2899
▁published	-2900
▁skill	-2901
▁gallery	-2902
▁prest	-2903
▁reached	-2904
▁mom	-2905
erly	-2906
▁ones	-2907
▁foods	-2908
▁tourn	-2909
ades	-2910
▁stren	-2911
▁stri	-2912
▁routine	-2913
▁destroyed	-2914
▁means	-2915
▁fields	-2916
▁writ	-2917
▁global	-2918
▁convers	-2919
▁disasters	-2920
▁opening	-2921
▁reput	-2922
▁words	-2923
▁struct	-2924
▁lands	-2925
time	-2926
▁unable	-2927
▁doors	-2928
▁stronger	-2929
▁prestigious	-2930
ensive	-2931
▁church	-2932
▁rock	-2933
▁shed	-2934
▁transpa	-2935
▁sustainability	-2936
▁colle	-2937
pid	-2938
▁expecting	-2939
lear	-2940
long	-2941
▁starting	-2942
▁attack	-2943
▁ans	-2944
▁hiker	-2945
▁style	-2946
▁decre	-2947
▁attendees	-2948
self	-2949
▁went	-2950
reme	-2951
yz	-2952
▁benefit	-2953
▁coun	-2954
avors	-2955
han	-2956
▁serves	-2957
▁policies	-2958
▁streng	-2959
▁immed	-2960
▁appear	-2961
▁calls	-2962
▁facilities	-2963
▁stat	-2964
▁vacc	-2965
▁worth	-2966
▁generations	-2967
▁imm	-2968
ball	-2969
▁unlike	-2970
▁illegal	-2971
ler	-2972
▁specific	-2973
erved	-2974
▁mix	-2975
▁uns	-2976
▁arch	-2977
encies	-2978
▁reli	-2979
▁thief	-2980
▁amen	-2981
▁commitment	-2982
▁reality	-2983
▁spotted	-2984
▁never	-2985
▁react	-2986
▁communicate	-2987
▁dangers	-2988
▁saved	-2989
▁survey	-2990
▁sources	-2991
standing	-2992
▁priv	-2993
▁pic	-2994
▁exce	-2995
▁tur	-2996
▁accurate	-2997
▁simple	-2998
▁heroes	-2999
▁agreement	-3000
▁text	-3001
▁trails	-3002
▁experiences	-3003
▁participants	-3004
▁preparing	-3005
cl	-3006
▁optim	-3007
▁impressed	-3008
▁holiday	-3009
icious	-3010
cert	-3011
▁journey	-3012
▁star	-3013
▁trip	-3014
▁fue	-3015
▁devices	-3016
▁restaurants	-3017
▁wait	-3018
▁adop	-3019
▁considered	-3020
▁improvements	-3021
▁reputation	-3022
▁video	-3023
▁charges	-3024
▁talented	-3025
▁winter	-3026
▁mean	-3027
▁tournament	-3028
▁profession	-3029
▁drive	-3030
load	-3031
▁shopping	-3032
▁song	-3033
▁sche	-3034
▁responders	-3035
▁cyc	-3036
ighter	-3037
▁thieves	-3038
▁direct	-3039
▁conv	-3040
▁dig	-3041
▁broken	-3042
uter	-3043
aced	-3044
▁answ	-3045
▁grand	-3046
▁hotel	-3047
▁rates	-3048
▁option	-3049
▁amenities	-3050
▁vo	-3051
▁trained	-3052
cape	-3053
gests	-3054
▁secure	-3055
▁suggests	-3056
▁wond	-3057
▁becomes	-3058
▁plastic	-3059
ters	-3060
▁speak	-3061
▁tourist	-3062
▁uncert	-3063
▁secret	-3064
▁scen	-3065
▁discounts	-3066
▁sat	-3067
▁skin	-3068
▁ceo	-3069
▁unve	-3070
▁regularly	-3071
▁fighting	-3072
▁proposal	-3073
hest	-3074
▁require	-3075
ping	-3076
▁red	-3077
▁jung	-3078
osing	-3079
▁frustration	-3080
▁officer	-3081
▁authors	-3082
sh	-3083
▁analyz	-3084
▁thriving	-3085
▁uncover	-3086
▁extreme	-3087
▁motiv	-3088
▁inspiration	-3089
▁crucial	-3090
▁pen	-3091
▁gone	-3092
▁ahead	-3093
▁preserve	-3094
▁suspicious	-3095
▁prison	-3096
▁highlights	-3097
pect	-3098
▁engaging	-3099
▁pets	-3100
▁question	-3101
▁buy	-3102
▁risks	-3103
▁oppon	-3104
▁speech	-3105
nded	-3106
▁accomplish	-3107
▁fear	-3108
bb	-3109
▁memories	-3110
▁plat	-3111
▁entertain	-3112
▁pieces	-3113
▁jungle	-3114
▁secrets	-3115
▁multip	-3116
▁ast	-3117
▁post	-3118
▁rising	-3119
ledge	-3120
▁criticized	-3121
▁platform	-3122
▁check	-3123
▁err	-3124
▁bird	-3125
▁felt	-3126
▁navigate	-3127
▁mass	-3128
▁moving	-3129
▁winning	-3130
▁caut	-3131
▁cautious	-3132
▁travelers	-3133
vert	-3134
▁implementing	-3135
▁discoveries	-3136
llig	-3137
▁crop	-3138
▁predict	-3139
▁nut	-3140
▁contam	-3141
▁normal	-3142
ead	-3143
▁surprise	-3144
▁abs	-3145
▁snow	-3146
▁diag	-3147
▁flavors	-3148
▁fabr	-3149
▁fra	-3150
▁draw	-3151
▁kit	-3152
▁cool	-3153
▁generosity	-3154
▁professionals	-3155
▁flavor	-3156
▁outage	-3157
▁mal	-3158
▁predic	-3159
▁interv	-3160
▁hits	-3161
▁bag	-3162
▁fundra	-3163
▁corp	-3164
cep	-3165
▁bakery	-3166
▁spaces	-3167
▁library	-3168
eded	-3169
▁leads	-3170
▁appe	-3171
▁industries	-3172
▁lights	-3173
▁outages	-3174
▁readers	-3175
ronic	-3176
▁moment	-3177
▁instead	-3178
hered	-3179
▁path	-3180
▁curric	-3181
▁curricul	-3182
▁searching	-3183
▁conflict	-3184
▁intellig	-3185
▁passionate	-3186
▁combat	-3187
ribute	-3188
▁unclear	-3189
▁based	-3190
▁smart	-3191
oper	-3192
▁function	-3193
▁lay	-3194
▁holding	-3195
▁decor	-3196
▁example	-3197
▁wear	-3198
▁hear	-3199
▁along	-3200
▁views	-3201
▁wants	-3202
▁compete	-3203
▁exhibition	-3204
▁universe	-3205
▁mistake	-3206
ots	-3207
▁let	-3208
▁cultural	-3209
imin	-3210
▁rapid	-3211
▁curriculum	-3212
▁earthqu	-3213
iling	-3214
▁promoting	-3215
▁trapped	-3216
▁cooper	-3217
to	-3218
▁negative	-3219
▁hurt	-3220
▁appl	-3221
▁trade	-3222
▁knowledge	-3223
▁installation	-3224
▁unha	-3225
▁loud	-3226
▁balance	-3227
▁proposed	-3228
▁focused	-3229
▁therapy	-3230
▁productivity	-3231
▁ple	-3232
iet	-3233
rit	-3234
▁machine	-3235
▁mountain	-3236
▁order	-3237
ude	-3238
▁higher	-3239
▁vegetables	-3240
▁guide	-3241
▁pressure	-3242
▁cat	-3243
▁traveling	-3244
pet	-3245
▁artwork	-3246
▁insect	-3247
▁outside	-3248
▁praising	-3249
▁habitats	-3250
▁teaching	-3251
mit	-3252
▁stock	-3253
▁strang	-3254
▁witness	-3255
▁equipped	-3256
▁contest	-3257
cond	-3258
icals	-3259
▁struggles	-3260
▁classic	-3261
▁formed	-3262
▁sparks	-3263
▁cleaner	-3264
▁teenagers	-3265
break	-3266
▁informed	-3267
▁gir	-3268
▁repres	-3269
oo	-3270
▁luck	-3271
▁tv	-3272
▁sen	-3273
▁enjoyable	-3274
▁cap	-3275
▁argue	-3276
▁stimulate	-3277
▁board	-3278
▁asking	-3279
▁cred	-3280
▁systems	-3281
▁watch	-3282
▁renovation	-3283
▁correct	-3284
▁route	-3285
▁wake	-3286
▁skept	-3287
▁journal	-3288
ughout	-3289
▁throughout	-3290
▁saves	-3291
▁feedback	-3292
▁begin	-3293
▁vibr	-3294
▁keeping	-3295
▁station	-3296
▁holds	-3297
▁revenue	-3298
needed	-3299
▁burgl	-3300
▁truck	-3301
▁happening	-3302
▁computer	-3303
▁idea	-3304
▁hy	-3305
▁fast	-3306
▁willing	-3307
hy	-3308
▁proced	-3309
▁affects	-3310
kes	-3311
icing	-3312
zy	-3313
▁remem	-3314
fts	-3315
▁serving	-3316
▁broke	-3317
▁wave	-3318
oss	-3319
▁warned	-3320
▁leak	-3321
▁seek	-3322
ently	-3323
▁jewel	-3324
lish	-3325
ributed	-3326
▁convenient	-3327
▁shock	-3328
▁bott	-3329
▁educate	-3330
ference	-3331
▁competitive	-3332
▁phone	-3333
force	-3334
▁room	-3335
▁smooth	-3336
▁controversial	-3337
▁offered	-3338
▁carry	-3339
▁rescued	-3340
▁applications	-3341
tering	-3342
▁choices	-3343
▁fort	-3344
▁outpo	-3345
▁calm	-3346
▁laugh	-3347
uth	-3348
▁outpouring	-3349
▁ice	-3350
▁easily	-3351
▁professional	-3352
▁background	-3353
unds	-3354
loat	-3355
▁chemicals	-3356
▁university	-3357
▁clin	-3358
▁picn	-3359
▁afloat	-3360
▁obs	-3361
sing	-3362
▁loving	-3363
▁spirit	-3364
▁invent	-3365
▁cook	-3366
ends	-3367
▁lux	-3368
▁exploring	-3369
▁cir	-3370
▁anything	-3371
▁lines	-3372
▁gas	-3373
▁historical	-3374
enses	-3375
cul	-3376
▁determination	-3377
▁meals	-3378
ching	-3379
dule	-3380
▁wildf	-3381
inks	-3382
▁victims	-3383
▁fruits	-3384
▁manufacture	-3385
atory	-3386
▁crimes	-3387
▁sweet	-3388
▁estab	-3389
▁planned	-3390
▁upgra	-3391
▁disruptions	-3392
▁bill	-3393
iveness	-3394
▁dura	-3395
▁disappointed	-3396
▁decl	-3397
▁incon	-3398
▁jewelry	-3399
men	-3400
▁airport	-3401
▁task	-3402
▁occas	-3403
▁larger	-3404
▁sympt	-3405
▁movement	-3406
▁hiking	-3407
▁multiple	-3408
▁rich	-3409
▁repairs	-3410
▁electricity	-3411
verty	-3412
▁stric	-3413
▁showed	-3414
▁confidence	-3415
▁stricter	-3416
▁poverty	-3417
▁film	-3418
▁conserve	-3419
▁unveiled	-3420
▁alle	-3421
▁does	-3422
▁treated	-3423
▁collap	-3424
▁box	-3425
▁district	-3426
▁mission	-3427
▁happened	-3428
▁recycle	-3429
income	-3430
▁responsibility	-3431
▁eagerly	-3432
▁negot	-3433
▁meditation	-3434
▁honor	-3435
▁impressive	-3436
▁intelligence	-3437
athered	-3438
▁wealth	-3439
▁intric	-3440
erving	-3441
▁transparency	-3442
▁tension	-3443
utes	-3444
▁erup	-3445
▁learned	-3446
uis	-3447
▁truth	-3448
gr	-3449
▁participate	-3450
▁stranded	-3451
▁significantly	-3452
▁desc	-3453
▁opin	-3454
▁coff	-3455
▁taxes	-3456
▁various	-3457
ression	-3458
▁provided	-3459
▁outbreak	-3460
see	-3461
▁women	-3462
▁eat	-3463
▁alarm	-3464
▁launch	-3465
▁leave	-3466
▁scholars	-3467
▁pha	-3468
▁then	-3469
▁freed	-3470
▁inconven	-3471
▁haz	-3472
▁rave	-3473
▁sad	-3474
enance	-3475
▁excell	-3476
▁symptoms	-3477
▁stir	-3478
usive	-3479
▁main	-3480
▁gathered	-3481
▁diversity	-3482
▁san	-3483
▁showcase	-3484
▁pool	-3485
adem	-3486
▁efficiently	-3487
▁polit	-3488
▁hosting	-3489
▁effectively	-3490
▁photograp	-3491
▁dance	-3492
▁administration	-3493
▁discussion	-3494
▁ver	-3495
hedul	-3496
▁whether	-3497
▁collecting	-3498
▁shape	-3499
▁resource	-3500
▁coast	-3501
▁parts	-3502
▁contribut	-3503
▁sea	-3504
▁represent	-3505
▁tips	-3506
unction	-3507
▁creates	-3508
▁drink	-3509
▁stream	-3510
▁weight	-3511
▁continues	-3512
▁turned	-3513
hab	-3514
rests	-3515
▁accord	-3516
urb	-3517
▁academ	-3518
▁outdoors	-3519
▁repl	-3520
iff	-3521
uses	-3522
▁quiet	-3523
▁raising	-3524
▁shocked	-3525
▁crack	-3526
▁surg	-3527
arking	-3528
▁seni	-3529
▁humans	-3530
▁maintenance	-3531
▁reun	-3532
mers	-3533
▁interested	-3534
▁dry	-3535
▁cover	-3536
▁corrupt	-3537
▁decline	-3538
▁present	-3539
▁protecting	-3540
▁street	-3541
▁belong	-3542
▁accountability	-3543
▁entrepreneurs	-3544
▁reward	-3545
▁oil	-3546
land	-3547
▁batt	-3548
▁uncovered	-3549
emp	-3550
orn	-3551
▁zoo	-3552
▁reviewing	-3553
ave	-3554
▁alg	-3555
▁burning	-3556
▁surrounding	-3557
▁sell	-3558
▁snack	-3559
▁phil	-3560
▁raving	-3561
▁mistakes	-3562
▁vill	-3563
▁skeptical	-3564
ection	-3565
▁matter	-3566
▁neighborhoods	-3567
▁fabric	-3568
▁criticism	-3569
▁pick	-3570
▁celebrated	-3571
▁places	-3572
▁cultures	-3573
▁shut	-3574
▁intricate	-3575
▁inconvenience	-3576
▁price	-3577
▁milit	-3578
▁standing	-3579
▁attending	-3580
▁second	-3581
▁true	-3582
log	-3583
▁traged	-3584
▁chronic	-3585
▁highlighted	-3586
▁investment	-3587
▁vehicles	-3588
▁finished	-3589
▁penal	-3590
▁emotional	-3591
▁stap	-3592
▁lake	-3593
▁strength	-3594
itect	-3595
▁staple	-3596
▁architect	-3597
▁judge	-3598
▁neglect	-3599
▁serve	-3600
▁camp	-3601
▁included	-3602
▁eventually	-3603
▁final	-3604
val	-3605
▁advice	-3606
▁emotions	-3607
▁yet	-3608
amed	-3609
▁rad	-3610
▁worksho	-3611
▁resolved	-3612
▁today	-3613
▁decades	-3614
▁alert	-3615
▁nation	-3616
▁celebrity	-3617
▁eye	-3618
▁hall	-3619
otic	-3620
▁reform	-3621
▁rainfall	-3622
▁creators	-3623
▁overwhelmed	-3624
▁speaking	-3625
▁flex	-3626
▁mid	-3627
▁plag	-3628
ties	-3629
▁priorit	-3630
▁arrived	-3631
▁volunteer	-3632
▁denied	-3633
▁rapidly	-3634
▁particular	-3635
▁loyal	-3636
▁sport	-3637
▁debt	-3638
▁sparking	-3639
▁subject	-3640
str	-3641
ses	-3642
▁interactive	-3643
▁operation	-3644
▁treats	-3645
▁looked	-3646
▁vibrant	-3647
▁currently	-3648
▁urged	-3649
▁prin	-3650
ushed	-3651
▁herit	-3652
▁heritage	-3653
▁schedule	-3654
▁sugg	-3655
▁join	-3656
▁storms	-3657
▁astron	-3658
▁perspect	-3659
▁innovation	-3660
▁paintings	-3661
▁clothes	-3662
imp	-3663
▁cream	-3664
▁topic	-3665
▁breaks	-3666
▁choice	-3667
▁sides	-3668
▁fully	-3669
par	-3670
▁contract	-3671
▁coffee	-3672
▁conference	-3673
▁surgery	-3674
▁durable	-3675
▁practice	-3676
▁lifesty	-3677
▁malf	-3678
▁inspiring	-3679
une	-3680
▁violence	-3681
▁exist	-3682
▁scre	-3683
▁judges	-3684
▁saving	-3685
▁transform	-3686
▁cuts	-3687
itude	-3688
▁faces	-3689
▁replace	-3690
loc	-3691
▁photos	-3692
▁motor	-3693
▁vig	-3694
cut	-3695
▁unw	-3696
▁strategy	-3697
▁newsp	-3698
▁terms	-3699
let	-3700
▁document	-3701
▁attracted	-3702
▁tragedy	-3703
▁performances	-3704
works	-3705
asc	-3706
▁pun	-3707
▁writing	-3708
▁repe	-3709
fficient	-3710
ppers	-3711
▁milest	-3712
uction	-3713
▁studied	-3714
▁according	-3715
▁expansion	-3716
chen	-3717
▁sil	-3718
▁rival	-3719
▁kitchen	-3720
▁cycl	-3721
▁raises	-3722
▁shar	-3723
▁ended	-3724
ishes	-3725
ssil	-3726
▁fossil	-3727
▁rallied	-3728
▁immediate	-3729
▁aware	-3730
▁painting	-3731
▁facility	-3732
▁tools	-3733
▁engage	-3734
▁workplace	-3735
▁ruins	-3736
▁pip	-3737
▁restored	-3738
▁wanted	-3739
▁brand	-3740
▁sale	-3741
▁cleanup	-3742
▁classro	-3743
▁consumption	-3744
▁subst	-3745
akers	-3746
▁supposed	-3747
▁wearing	-3748
▁career	-3749
▁topics	-3750
ision	-3751
▁frequ	-3752
outh	-3753
orith	-3754
▁meaning	-3755
▁internet	-3756
▁scam	-3757
▁algorith	-3758
▁performed	-3759
▁goes	-3760
ound	-3761
▁colorful	-3762
▁unp	-3763
eds	-3764
▁sick	-3765
▁direction	-3766
▁soil	-3767
▁master	-3768
iles	-3769
▁date	-3770
house	-3771
sed	-3772
▁pup	-3773
▁climb	-3774
▁pursue	-3775
▁critical	-3776
▁tor	-3777
▁governments	-3778
▁conversation	-3779
▁fisher	-3780
inct	-3781
▁landf	-3782
▁sy	-3783
▁ball	-3784
▁situations	-3785
osition	-3786
▁incred	-3787
▁charged	-3788
▁walk	-3789
▁fines	-3790
▁vandal	-3791
▁ran	-3792
▁vigil	-3793
▁achieved	-3794
itable	-3795
▁milestone	-3796
▁sculpture	-3797
▁awarded	-3798
▁prosp	-3799
▁memor	-3800
▁schedul	-3801
▁ele	-3802
▁pollut	-3803
▁experiment	-3804
▁carefully	-3805
▁seniors	-3806
▁minor	-3807
▁tick	-3808
where	-3809
▁malfunction	-3810
▁sett	-3811
tered	-3812
▁wider	-3813
▁influ	-3814
▁satis	-3815
▁decrease	-3816
ites	-3817
▁leaves	-3818
▁fal	-3819
▁ir	-3820
▁auction	-3821
▁corruption	-3822
▁wall	-3823
▁standards	-3824
▁dress	-3825
▁harsh	-3826
rop	-3827
▁interview	-3828
▁uncertain	-3829
▁death	-3830
▁breath	-3831
▁download	-3832
▁base	-3833
▁roll	-3834
▁tox	-3835
inary	-3836
▁achievements	-3837
mates	-3838
▁instruct	-3839
▁dining	-3840
ashed	-3841
▁advoc	-3842
▁optimistic	-3843
▁bab	-3844
▁theft	-3845
▁military	-3846
▁musicians	-3847
tion	-3848
rain	-3849
fer	-3850
▁cameras	-3851
▁match	-3852
▁girl	-3853
▁wrongdo	-3854
ded	-3855
▁someone	-3856
▁minimize	-3857
▁freedom	-3858
▁abilities	-3859
tery	-3860
▁bags	-3861
ender	-3862
▁announces	-3863
▁tried	-3864
▁accomplishment	-3865
▁resolution	-3866
gic	-3867
▁reading	-3868
▁morning	-3869
▁collab	-3870
▁breakthroughs	-3871
▁woods	-3872
▁miles	-3873
▁age	-3874
▁novel	-3875
ificial	-3876
▁changed	-3877
▁kno	-3878
▁historians	-3879
▁refuge	-3880
▁mit	-3881
▁bullying	-3882
ont	-3883
▁intended	-3884
▁wrongdoing	-3885
▁undergo	-3886
▁demands	-3887
▁hub	-3888
▁perse	-3889
▁demon	-3890
▁artificial	-3891
▁perpet	-3892
▁drinking	-3893
▁happiness	-3894
▁solar	-3895
▁kn	-3896
itor	-3897
▁alb	-3898
▁late	-3899
▁guid	-3900
▁upon	-3901
ny	-3902
▁designer	-3903
▁album	-3904
▁pride	-3905
▁spill	-3906
▁newspaper	-3907
▁grades	-3908
▁saw	-3909
▁lifestyle	-3910
▁original	-3911
▁activists	-3912
▁suspects	-3913
▁grocer	-3914
▁value	-3915
urance	-3916
▁measure	-3917
▁advert	-3918
▁incor	-3919
▁net	-3920
▁basic	-3921
▁reduced	-3922
ugs	-3923
▁sounds	-3924
▁theater	-3925
▁fell	-3926
▁virus	-3927
▁designers	-3928
tic	-3929
oses	-3930
ishing	-3931
igr	-3932
▁glory	-3933
▁counse	-3934
▁harmful	-3935
▁removed	-3936
▁guilt	-3937
▁adults	-3938
▁academic	-3939
▁routes	-3940
ops	-3941
▁webs	-3942
▁sensors	-3943
▁staying	-3944
▁single	-3945
▁force	-3946
▁styles	-3947
▁pil	-3948
▁yield	-3949
▁member	-3950
▁cuis	-3951
▁resign	-3952
▁difficulties	-3953
▁focuses	-3954
▁celebrates	-3955
oint	-3956
▁why	-3957
▁obst	-3958
▁honored	-3959
▁code	-3960
▁boy	-3961
▁homeowner	-3962
▁ine	-3963
▁jam	-3964
▁parties	-3965
▁mystery	-3966
▁penalties	-3967
▁characters	-3968
▁failed	-3969
▁disord	-3970
ume	-3971
▁dom	-3972
▁cozy	-3973
rators	-3974
▁fallen	-3975
orate	-3976
▁din	-3977
▁linked	-3978
▁mural	-3979
▁touch	-3980
▁gained	-3981
ira	-3982
▁written	-3983
▁strike	-3984
▁crowds	-3985
▁consider	-3986
osop	-3987
▁purp	-3988
▁philosop	-3989
iod	-3990
▁lower	-3991
▁profits	-3992
▁protests	-3993
▁disrup	-3994
▁volunteering	-3995
▁disag	-3996
▁blaz	-3997
ane	-3998
▁hike	-3999
▁presence	-4000
ained	-4001
▁trial	-4002
▁hazard	-4003
▁period	-4004
▁effectiveness	-4005
▁empha	-4006
▁stage	-4007
▁objects	-4008
▁little	-4009
▁restrict	-4010
▁values	-4011
▁union	-4012
▁intense	-4013
▁island	-4014
▁dark	-4015
▁guidance	-4016
▁fat	-4017
ipl	-4018
▁practicing	-4019
▁camera	-4020
▁standard	-4021
▁types	-4022
▁investigate	-4023
▁fruit	-4024
▁ps	-4025
▁flight	-4026
▁recommend	-4027
▁mitigate	-4028
▁performing	-4029
▁robot	-4030
▁accep	-4031
uries	-4032
▁individual	-4033
▁household	-4034
▁educational	-4035
▁gol	-4036
▁deals	-4037
▁reop	-4038
▁reserve	-4039
▁deadly	-4040
▁awards	-4041
▁workshops	-4042
▁unhapp	-4043
▁engineers	-4044
▁surprised	-4045
▁rolled	-4046
▁listen	-4047
▁fasc	-4048
▁ge	-4049
▁cope	-4050
▁opponents	-4051
▁downturn	-4052
▁statement	-4053
▁messages	-4054
▁negoti	-4055
▁located	-4056
▁theory	-4057
▁returned	-4058
▁cash	-4059
▁exploration	-4060
▁reliable	-4061
ification	-4062
▁contact	-4063
▁played	-4064
▁investing	-4065
▁limited	-4066
▁reflect	-4067
▁paying	-4068
inations	-4069
▁established	-4070
▁div	-4071
▁escape	-4072
▁notice	-4073
▁leadership	-4074
▁vaccine	-4075
emed	-4076
▁developing	-4077
icip	-4078
▁officers	-4079
▁college	-4080
▁outcomes	-4081
▁false	-4082
uff	-4083
iced	-4084
joyed	-4085
▁disturb	-4086
▁opinions	-4087
▁overjoyed	-4088
▁supportive	-4089
cent	-4090
▁soldiers	-4091
▁wed	-4092
▁vital	-4093
▁pests	-4094
▁entire	-4095
▁string	-4096
▁counseling	-4097
▁awa	-4098
▁devastated	-4099
off	-4100
cially	-4101
▁expertise	-4102
▁dogs	-4103
▁recycled	-4104
epend	-4105
▁alive	-4106
▁paper	-4107
eria	-4108
▁defect	-4109
▁structure	-4110
▁patro	-4111
▁ease	-4112
▁disre	-4113
▁rum	-4114
▁tun	-4115
▁user	-4116
▁actually	-4117
▁suggest	-4118
urning	-4119
dle	-4120
▁massive	-4121
▁ang	-4122
▁strategies	-4123
▁butter	-4124
▁occasion	-4125
▁outraged	-4126
▁answers	-4127
▁candidates	-4128
▁pul	-4129
ably	-4130
▁lanes	-4131
▁stealing	-4132
▁protection	-4133
ission	-4134
▁drinks	-4135
▁shocking	-4136
▁rural	-4137
na	-4138
▁fireworks	-4139
istics	-4140
▁accountable	-4141
▁gar	-4142
▁capture	-4143
▁craft	-4144
▁stuck	-4145
▁crew	-4146
▁creatures	-4147
sen	-4148
▁memory	-4149
▁vacation	-4150
▁preserving	-4151
▁moved	-4152
▁emphas	-4153
▁hospit	-4154
▁footage	-4155
▁flocking	-4156
ames	-4157
▁visiting	-4158
▁properly	-4159
▁earthquake	-4160
▁labor	-4161
▁swimming	-4162
▁finish	-4163
▁appreciation	-4164
▁vers	-4165
▁expanding	-4166
▁espe	-4167
▁fires	-4168
▁dram	-4169
▁suffering	-4170
▁trials	-4171
kers	-4172
▁landfills	-4173
▁comedian	-4174
▁limit	-4175
▁breaking	-4176
▁scr	-4177
inating	-4178
▁panic	-4179
▁gives	-4180
▁trends	-4181
▁farming	-4182
comed	-4183
▁losing	-4184
▁cast	-4185
iences	-4186
ushing	-4187
▁welcomed	-4188
▁assess	-4189
▁purchase	-4190
▁evacuate	-4191
goers	-4192
▁separ	-4193
▁independ	-4194
▁bust	-4195
▁mansion	-4196
▁adding	-4197
▁point	-4198
▁identified	-4199
▁fill	-4200
▁thrill	-4201
ague	-4202
▁organizing	-4203
▁appearance	-4204
met	-4205
urses	-4206
▁additional	-4207
▁centuries	-4208
▁disagree	-4209
▁monitor	-4210
▁lessons	-4211
▁especially	-4212
holog	-4213
▁faced	-4214
▁excellent	-4215
▁tit	-4216
▁amazing	-4217
▁records	-4218
▁sharp	-4219
▁glass	-4220
▁expenses	-4221
▁crafts	-4222
▁increasingly	-4223
lers	-4224
▁worker	-4225
rel	-4226
▁clock	-4227
▁sanct	-4228
▁disappear	-4229
▁protected	-4230
▁predicting	-4231
▁models	-4232
▁smartph	-4233
▁tast	-4234
▁corporation	-4235
▁feelings	-4236
▁birth	-4237
▁od	-4238
ceived	-4239
▁closure	-4240
uests	-4241
▁horse	-4242
▁guests	-4243
▁putting	-4244
▁involve	-4245
▁viral	-4246
uzz	-4247
▁circ	-4248
▁toxic	-4249
▁proving	-4250
▁annivers	-4251
▁monitoring	-4252
▁content	-4253
▁depression	-4254
▁waves	-4255
▁entertainment	-4256
▁agg	-4257
▁pupp	-4258
profile	-4259
▁initiatives	-4260
▁sac	-4261
▁tragic	-4262
▁guilty	-4263
▁obstac	-4264
▁remark	-4265
▁private	-4266
▁losses	-4267
▁active	-4268
▁mall	-4269
▁hiring	-4270
▁resil	-4271
▁explorers	-4272
▁carrying	-4273
▁delayed	-4274
▁emergencies	-4275
▁hired	-4276
▁dan	-4277
▁details	-4278
▁hearing	-4279
▁picnic	-4280
iser	-4281
▁ign	-4282
icks	-4283
▁acts	-4284
▁fraud	-4285
▁citing	-4286
▁voters	-4287
▁item	-4288
▁vigilant	-4289
ns	-4290
▁updates	-4291
▁anticip	-4292
down	-4293
▁rang	-4294
▁bloom	-4295
▁spo	-4296
▁enforce	-4297
night	-4298
▁enjoyed	-4299
aming	-4300
ologies	-4301
▁deliver	-4302
▁compens	-4303
▁everyday	-4304
▁renovations	-4305
▁gal	-4306
▁manufacturing	-4307
▁artic	-4308
▁comments	-4309
▁lighting	-4310
▁plane	-4311
ost	-4312
▁rather	-4313
▁dish	-4314
owed	-4315
▁else	-4316
▁lane	-4317
▁exhibits	-4318
▁advising	-4319
▁rushed	-4320
▁discount	-4321
efficient	-4322
ibly	-4323
dom	-4324
uit	-4325
▁compass	-4326
▁bills	-4327
▁astronom	-4328
▁eld	-4329
wide	-4330
▁ped	-4331
▁gets	-4332
▁manager	-4333
▁marath	-4334
▁theme	-4335
▁fan	-4336
▁treating	-4337
▁required	-4338
▁resulted	-4339
impse	-4340
▁glimpse	-4341
▁error	-4342
▁handle	-4343
▁invented	-4344
▁recre	-4345
▁prioritize	-4346
▁guard	-4347
▁loves	-4348
▁candidate	-4349
▁charities	-4350
▁taste	-4351
ifying	-4352
ifts	-4353
▁brew	-4354
▁demol	-4355
cal	-4356
ral	-4357
▁flower	-4358
▁battle	-4359
▁usual	-4360
▁unhappy	-4361
mod	-4362
▁bat	-4363
▁fine	-4364
ously	-4365
▁audiences	-4366
▁motivated	-4367
▁turns	-4368
▁improves	-4369
▁suddenly	-4370
▁accommod	-4371
itors	-4372
▁survive	-4373
▁sand	-4374
▁spect	-4375
▁fault	-4376
▁fishing	-4377
umbled	-4378
▁foodies	-4379
▁approved	-4380
▁fake	-4381
▁football	-4382
▁mood	-4383
▁morale	-4384
▁listening	-4385
soci	-4386
▁though	-4387
▁interests	-4388
▁anniversary	-4389
▁defending	-4390
▁front	-4391
▁firm	-4392
▁caution	-4393
▁buying	-4394
▁bests	-4395
▁exercises	-4396
▁didn	-4397
profit	-4398
▁evacuated	-4399
▁awaiting	-4400
▁relaxation	-4401
▁discr	-4402
▁disrepair	-4403
▁phase	-4404
▁allowed	-4405
▁teamwork	-4406
▁cul	-4407
▁bold	-4408
▁commer	-4409
iny	-4410
▁arts	-4411
▁marketing	-4412
▁amuse	-4413
aw	-4414
▁stranger	-4415
▁expressing	-4416
▁chosen	-4417
hs	-4418
▁crash	-4419
pre	-4420
▁unity	-4421
▁mountains	-4422
▁shops	-4423
▁appreciate	-4424
▁describ	-4425
gest	-4426
▁parade	-4427
▁windows	-4428
▁pict	-4429
▁responded	-4430
▁robber	-4431
▁manufacturer	-4432
▁shoes	-4433
▁terrain	-4434
▁algorithms	-4435
▁fro	-4436
▁wilder	-4437
▁sensitive	-4438
▁swit	-4439
▁proven	-4440
▁boat	-4441
▁king	-4442
▁songs	-4443
▁gradu	-4444
▁blend	-4445
▁selfless	-4446
▁card	-4447
▁ta	-4448
▁vend	-4449
▁bread	-4450
▁smell	-4451
▁stylish	-4452
▁connected	-4453
▁cases	-4454
▁marine	-4455
▁bond	-4456
▁attractions	-4457
▁renown	-4458
▁professor	-4459
▁reck	-4460
arr	-4461
▁cross	-4462
▁couples	-4463
term	-4464
▁sanctu	-4465
▁gardens	-4466
▁sculptures	-4467
▁lived	-4468
▁wonder	-4469
▁differences	-4470
reed	-4471
▁cance	-4472
▁cells	-4473
▁fuel	-4474
▁website	-4475
▁showcasing	-4476
▁meal	-4477
▁feels	-4478
▁backgrounds	-4479
osion	-4480
▁riders	-4481
▁competing	-4482
▁roller	-4483
▁vehicle	-4484
der	-4485
▁fier	-4486
▁parking	-4487
▁suffered	-4488
▁marathon	-4489
▁resist	-4490
▁amusement	-4491
▁proper	-4492
▁prior	-4493
▁except	-4494
▁reports	-4495
▁skilled	-4496
▁upgrade	-4497
aves	-4498
▁puzz	-4499
▁connection	-4500
▁witnesses	-4501
▁later	-4502
▁reduction	-4503
▁shift	-4504
▁numbers	-4505
pie	-4506
▁surroundings	-4507
▁youth	-4508
▁setting	-4509
made	-4510
▁ment	-4511
▁shoppers	-4512
▁identity	-4513
▁renowned	-4514
▁amb	-4515
▁blaze	-4516
ils	-4517
▁struck	-4518
▁wilderness	-4519
▁strict	-4520
▁hospitals	-4521
fs	-4522
▁encourages	-4523
uting	-4524
▁tempor	-4525
▁imag	-4526
▁chain	-4527
▁runner	-4528
enty	-4529
▁talking	-4530
iber	-4531
▁invas	-4532
ressive	-4533
makers	-4534
over	-4535
atched	-4536
▁donate	-4537
▁comment	-4538
▁monitored	-4539
▁incredible	-4540
▁crews	-4541
▁associ	-4542
▁qual	-4543
▁thrilling	-4544
▁necessities	-4545
estic	-4546
essions	-4547
▁politicians	-4548
▁expectations	-4549
▁ren	-4550
▁complaining	-4551
▁served	-4552
▁illnesses	-4553
▁spok	-4554
▁liter	-4555
▁stars	-4556
▁prem	-4557
▁entrepreneur	-4558
▁fined	-4559
▁cyclists	-4560
▁score	-4561
loyment	-4562
ading	-4563
▁outstanding	-4564
hem	-4565
uracy	-4566
▁butterf	-4567
▁reduces	-4568
▁simpl	-4569
icken	-4570
▁presc	-4571
▁signed	-4572
▁comedy	-4573
▁forecasters	-4574
▁incorp	-4575
▁valuables	-4576
▁ten	-4577
▁tap	-4578
▁desert	-4579
▁thoughts	-4580
eries	-4581
ession	-4582
▁integr	-4583
▁bound	-4584
▁partners	-4585
ples	-4586
▁pig	-4587
▁gift	-4588
taking	-4589
▁skies	-4590
▁contributions	-4591
▁forg	-4592
▁burglaries	-4593
dr	-4594
vings	-4595
▁participating	-4596
irs	-4597
▁lic	-4598
comfort	-4599
▁laughter	-4600
cers	-4601
▁continued	-4602
▁choose	-4603
▁hung	-4604
▁adopted	-4605
▁buzz	-4606
▁hunt	-4607
▁dates	-4608
ument	-4609
▁door	-4610
▁voice	-4611
mb	-4612
▁whole	-4613
iance	-4614
▁masterpie	-4615
etic	-4616
▁origin	-4617
▁legal	-4618
▁voices	-4619
ads	-4620
▁sam	-4621
▁dreams	-4622
▁transition	-4623
▁fundraising	-4624
▁closer	-4625
▁survival	-4626
▁gent	-4627
▁technologies	-4628
▁overs	-4629
▁apartments	-4630
▁researcher	-4631
▁might	-4632
▁terr	-4633
▁diagn	-4634
▁procedures	-4635
▁rom	-4636
▁broad	-4637
▁defend	-4638
▁failure	-4639
▁director	-4640
▁images	-4641
rical	-4642
▁package	-4643
▁demonstr	-4644
▁mob	-4645
▁tests	-4646
▁looks	-4647
▁stad	-4648
▁kid	-4649
▁accuracy	-4650
▁position	-4651
▁presented	-4652
▁plenty	-4653
▁inspect	-4654
▁complaints	-4655
▁mixed	-4656
▁mur	-4657
▁collapse	-4658
ups	-4659
▁baby	-4660
ological	-4661
▁focusing	-4662
▁cooperation	-4663
unk	-4664
▁mel	-4665
▁lawsuit	-4666
rous	-4667
▁acqu	-4668
ints	-4669
▁funded	-4670
▁exposed	-4671
▁brave	-4672
▁magic	-4673
per	-4674
▁eth	-4675
▁torn	-4676
▁fulf	-4677
▁mathem	-4678
▁finances	-4679
▁recipes	-4680
▁diverse	-4681
▁alarming	-4682
eller	-4683
▁bees	-4684
▁waters	-4685
▁rides	-4686
▁incent	-4687
▁legacy	-4688
underst	-4689
▁flying	-4690
▁nutr	-4691
▁stadium	-4692
▁accomplished	-4693
▁instru	-4694
ricult	-4695
▁agricult	-4696
▁embra	-4697
▁forms	-4698
received	-4699
iation	-4700
▁cutting	-4701
▁inventor	-4702
▁renewed	-4703
▁sanctuary	-4704
▁fierce	-4705
▁transl	-4706
reg	-4707
▁vandalism	-4708
▁speeding	-4709
▁reloc	-4710
▁brighter	-4711
▁turning	-4712
imate	-4713
▁income	-4714
▁studies	-4715
faction	-4716
▁educators	-4717
▁enforcement	-4718
▁collected	-4719
▁fishermen	-4720
▁cuisine	-4721
▁increases	-4722
▁edge	-4723
▁sets	-4724
▁subs	-4725
▁revital	-4726
ulating	-4727
▁excess	-4728
▁coaster	-4729
▁agreed	-4730
▁persever	-4731
irts	-4732
▁attributed	-4733
▁belongings	-4734
▁vision	-4735
▁amazed	-4736
▁meetings	-4737
light	-4738
▁tickets	-4739
▁obstacles	-4740
▁productive	-4741
▁perspective	-4742
▁appeal	-4743
▁conducting	-4744
▁excl	-4745
▁falling	-4746
▁table	-4747
▁useful	-4748
▁rangers	-4749
▁analyze	-4750
▁league	-4751
iant	-4752
▁era	-4753
▁stopped	-4754
▁compensation	-4755
osure	-4756
▁gear	-4757
▁recalled	-4758
izz	-4759
ulated	-4760
▁relaxing	-4761
▁retire	-4762
▁opposing	-4763
▁gathering	-4764
erous	-4765
ivals	-4766
ipp	-4767
put	-4768
▁constant	-4769
▁perseverance	-4770
▁venture	-4771
▁declared	-4772
▁helpful	-4773
▁walls	-4774
▁compassion	-4775
acking	-4776
▁greatly	-4777
▁wildfire	-4778
▁breathtaking	-4779
▁insects	-4780
▁ut	-4781
▁rememb	-4782
▁yields	-4783
stand	-4784
▁electron	-4785
▁vent	-4786
▁perf	-4787
▁tact	-4788
▁luxur	-4789
▁rooms	-4790
▁announce	-4791
▁winners	-4792
▁lose	-4793
▁retail	-4794
▁errors	-4795
oked	-4796
▁relationship	-4797
▁socialize	-4798
▁grat	-4799
▁bestseller	-4800
▁talk	-4801
▁escap	-4802
▁appointed	-4803
▁exotic	-4804
▁spreads	-4805
ban	-4806
▁map	-4807
▁fuels	-4808
ek	-4809
▁reason	-4810
▁hour	-4811
▁elderly	-4812
▁reass	-4813
izations	-4814
▁cy	-4815
▁vote	-4816
can	-4817
eth	-4818
▁became	-4819
▁shr	-4820
agues	-4821
▁procedure	-4822
▁distant	-4823
▁careers	-4824
▁name	-4825
▁generate	-4826
▁tensions	-4827
▁charge	-4828
ilit	-4829
▁stumbled	-4830
▁specialized	-4831
▁title	-4832
ript	-4833
▁steep	-4834
▁forces	-4835
▁gifts	-4836
alu	-4837
▁cas	-4838
flow	-4839
▁spoken	-4840
▁magn	-4841
oks	-4842
▁blood	-4843
▁remember	-4844
▁computers	-4845
▁landscape	-4846
umes	-4847
▁volcan	-4848
antic	-4849
▁seems	-4850
▁advance	-4851
▁distribute	-4852
fare	-4853
▁roof	-4854
▁successfully	-4855
▁psyc	-4856
▁urban	-4857
▁arrive	-4858
▁four	-4859
▁luxurious	-4860
▁buses	-4861
▁lively	-4862
▁walks	-4863
▁vendors	-4864
▁fundraiser	-4865
▁invention	-4866
▁threats	-4867
▁landscap	-4868
▁apply	-4869
▁begun	-4870
board	-4871
▁mine	-4872
▁block	-4873
▁significance	-4874
otion	-4875
▁dipl	-4876
▁jump	-4877
▁prose	-4878
▁diplom	-4879
ios	-4880
uted	-4881
▁psycholog	-4882
▁shelves	-4883
▁der	-4884
▁deadline	-4885
▁equal	-4886
▁floor	-4887
▁opponent	-4888
▁forever	-4889
amp	-4890
▁incentives	-4891
▁convenience	-4892
lash	-4893
▁satisfaction	-4894
▁unite	-4895
▁ecosystems	-4896
▁artis	-4897
▁magaz	-4898
▁lasting	-4899
cip	-4900
▁toy	-4901
▁singer	-4902
▁flights	-4903
▁nothing	-4904
▁luxury	-4905
▁sugar	-4906
ma	-4907
▁thick	-4908
onym	-4909
anted	-4910
▁overwhelming	-4911
lies	-4912
▁slowly	-4913
▁comply	-4914
▁limits	-4915
▁talents	-4916
▁tours	-4917
▁heal	-4918
iances	-4919
▁wand	-4920
▁invited	-4921
▁scenery	-4922
▁commute	-4923
▁contaminated	-4924
▁excav	-4925
▁instit	-4926
▁opposed	-4927
▁weigh	-4928
▁prospect	-4929
▁puppy	-4930
▁politics	-4931
▁stab	-4932
▁alone	-4933
▁exchan	-4934
▁electronics	-4935
▁interesting	-4936
▁confir	-4937
▁century	-4938
oes	-4939
▁tex	-4940
▁bord	-4941
▁gave	-4942
▁producing	-4943
rial	-4944
▁dust	-4945
▁mete	-4946
▁cloud	-4947
▁yog	-4948
▁equality	-4949
▁sighting	-4950
▁stability	-4951
li	-4952
▁worst	-4953
gs	-4954
▁network	-4955
▁wealthy	-4956
▁rebuilding	-4957
▁thing	-4958
▁faulty	-4959
▁gentle	-4960
▁harder	-4961
bed	-4962
▁plot	-4963
inance	-4964
▁rig	-4965
▁answer	-4966
▁formul	-4967
▁nutrition	-4968
▁reactions	-4969
ols	-4970
▁clinical	-4971
rig	-4972
▁crimin	-4973
▁repa	-4974
▁clar	-4975
necess	-4976
▁reunited	-4977
▁unnecess	-4978
asting	-4979
estri	-4980
ior	-4981
▁statue	-4982
▁rub	-4983
▁wedding	-4984
▁proves	-4985
▁recons	-4986
▁consult	-4987
▁watching	-4988
ipping	-4989
▁occurren	-4990
▁emerged	-4991
▁detailed	-4992
▁rule	-4993
▁anxious	-4994
▁insurance	-4995
▁gratitude	-4996
hens	-4997
▁abuse	-4998
▁existing	-4999
▁launches	-5000
▁sees	-5001
▁ensuring	-5002
▁vul	-5003
▁accurately	-5004
▁miner	-5005
orage	-5006
redict	-5007
▁drop	-5008
▁classroom	-5009
▁mer	-5010
▁exha	-5011
▁vulner	-5012
▁childhood	-5013
▁arm	-5014
▁princip	-5015
▁unpredict	-5016
▁plagued	-5017
ief	-5018
▁arguing	-5019
tee	-5020
orms	-5021
▁bit	-5022
ivered	-5023
▁scholarship	-5024
▁comprom	-5025
▁locations	-5026
▁generation	-5027
▁extent	-5028
iminal	-5029
▁bact	-5030
▁concept	-5031
▁eyes	-5032
lier	-5033
▁operate	-5034
▁climbers	-5035
▁criminal	-5036
▁purpose	-5037
▁tight	-5038
▁pedestri	-5039
dy	-5040
▁aggressive	-5041
▁simp	-5042
▁tall	-5043
▁smoke	-5044
arian	-5045
▁smoking	-5046
▁named	-5047
▁foreign	-5048
▁gardeners	-5049
▁centers	-5050
▁inside	-5051
▁opposition	-5052
▁kept	-5053
▁began	-5054
▁neglected	-5055
▁pal	-5056
▁dream	-5057
▁threatening	-5058
▁surface	-5059
enders	-5060
▁commercial	-5061
▁deli	-5062
▁blank	-5063
▁litter	-5064
▁tend	-5065
▁venue	-5066
▁viewers	-5067
▁grown	-5068
▁markets	-5069
▁embracing	-5070
▁highest	-5071
▁grocery	-5072
▁breathing	-5073
▁plum	-5074
▁solved	-5075
▁metal	-5076
▁heights	-5077
▁expensive	-5078
▁occup	-5079
nel	-5080
yard	-5081
▁creation	-5082
usted	-5083
▁deemed	-5084
▁reckless	-5085
▁unnecessary	-5086
orough	-5087
▁absor	-5088
▁mira	-5089
▁bask	-5090
▁inclusive	-5091
▁consist	-5092
cra	-5093
▁seem	-5094
▁rehab	-5095
▁president	-5096
▁respectful	-5097
▁earthquakes	-5098
empt	-5099
▁super	-5100
▁delivery	-5101
▁tail	-5102
▁renovated	-5103
▁hack	-5104
▁sacr	-5105
▁greenhouse	-5106
▁sells	-5107
▁targeting	-5108
▁contamination	-5109
outs	-5110
orses	-5111
▁resistance	-5112
waves	-5113
▁assist	-5114
▁generous	-5115
▁adap	-5116
▁passes	-5117
▁supporters	-5118
▁flu	-5119
▁preserved	-5120
▁himself	-5121
▁sending	-5122
▁functional	-5123
▁expanded	-5124
▁firefighter	-5125
▁applic	-5126
making	-5127
▁inequality	-5128
▁momentum	-5129
▁immedi	-5130
▁contains	-5131
▁disrupting	-5132
▁guidelines	-5133
▁immediately	-5134
bby	-5135
ith	-5136
▁ring	-5137
▁storage	-5138
▁comeback	-5139
▁yoga	-5140
ointment	-5141
▁political	-5142
▁neighboring	-5143
▁burn	-5144
▁undergoing	-5145
▁claiming	-5146
▁unpredictable	-5147
▁swept	-5148
▁colleagues	-5149
▁toys	-5150
▁defe	-5151
▁middle	-5152
spe	-5153
▁quar	-5154
▁barri	-5155
▁poet	-5156
▁strangers	-5157
▁tow	-5158
▁facts	-5159
▁unif	-5160
▁chefs	-5161
▁distributed	-5162
▁commotion	-5163
▁flexible	-5164
▁chemical	-5165
▁mechan	-5166
me	-5167
▁cry	-5168
▁rumors	-5169
▁regain	-5170
▁criminals	-5171
▁electrical	-5172
▁setback	-5173
dict	-5174
▁architecture	-5175
▁three	-5176
▁native	-5177
▁responding	-5178
▁gold	-5179
year	-5180
▁escal	-5181
▁dir	-5182
▁-	-5183
▁tired	-5184
entials	-5185
▁anonym	-5186
▁pond	-5187
odies	-5188
▁uncovering	-5189
olving	-5190
▁virt	-5191
▁regard	-5192
▁gap	-5193
▁outs	-5194
▁horses	-5195
▁dealing	-5196
▁phones	-5197
▁wine	-5198
▁flock	-5199
ulations	-5200
▁itself	-5201
▁resort	-5202
▁bacteria	-5203
▁remarkable	-5204
▁exe	-5205
▁analyzed	-5206
oon	-5207
craft	-5208
▁discussed	-5209
▁spr	-5210
▁meteor	-5211
▁pushing	-5212
▁substance	-5213
▁tut	-5214
▁rede	-5215
▁haunt	-5216
lets	-5217
ze	-5218
▁gang	-5219
reach	-5220
▁humor	-5221
▁performers	-5222
▁masterpiece	-5223
▁refusing	-5224
▁construct	-5225
ths	-5226
▁veter	-5227
acing	-5228
▁violent	-5229
▁diagno	-5230
▁experimental	-5231
erate	-5232
▁texts	-5233
▁displayed	-5234
▁replaced	-5235
▁rocks	-5236
asons	-5237
▁minutes	-5238
▁apologizing	-5239
▁send	-5240
▁autom	-5241
▁appliances	-5242
▁traum	-5243
▁claimed	-5244
▁investigated	-5245
▁ec	-5246
▁protesting	-5247
▁cart	-5248
▁singing	-5249
▁agencies	-5250
▁word	-5251
▁waterfall	-5252
▁general	-5253
▁proceed	-5254
▁delight	-5255
▁installing	-5256
▁black	-5257
▁scar	-5258
▁cheering	-5259
▁littering	-5260
▁technical	-5261
▁evening	-5262
▁delivered	-5263
▁onto	-5264
▁managed	-5265
▁overflow	-5266
▁consumer	-5267
▁worry	-5268
▁tack	-5269
▁makeover	-5270
wise	-5271
▁village	-5272
▁distract	-5273
▁uncertaint	-5274
▁unemp	-5275
▁remembered	-5276
▁fixed	-5277
▁worse	-5278
▁combines	-5279
▁numerous	-5280
▁crashed	-5281
▁evacuation	-5282
▁wages	-5283
▁whis	-5284
▁fears	-5285
▁bigger	-5286
▁allerg	-5287
▁flexibility	-5288
▁troops	-5289
icy	-5290
▁explores	-5291
▁languages	-5292
▁rely	-5293
▁machines	-5294
inate	-5295
▁runners	-5296
▁my	-5297
▁mic	-5298
▁smoothly	-5299
▁boundaries	-5300
lif	-5301
astics	-5302
▁respected	-5303
ister	-5304
▁blow	-5305
▁repaired	-5306
▁da	-5307
▁marking	-5308
not	-5309
weight	-5310
▁doesn	-5311
▁attendance	-5312
▁lesson	-5313
▁hurric	-5314
▁visited	-5315
▁structures	-5316
▁towns	-5317
▁pollutants	-5318
▁assign	-5319
▁breed	-5320
▁choosing	-5321
▁followed	-5322
▁worn	-5323
▁exped	-5324
▁orders	-5325
▁personalized	-5326
▁spring	-5327
▁swimmers	-5328
▁cave	-5329
▁lucky	-5330
▁locally	-5331
▁stret	-5332
▁meat	-5333
▁recognize	-5334
▁bottles	-5335
▁extinct	-5336
▁mourning	-5337
ails	-5338
▁hire	-5339
▁vulnerable	-5340
▁race	-5341
▁accept	-5342
▁addiction	-5343
ctions	-5344
orship	-5345
▁hailing	-5346
▁collaboration	-5347
▁magazine	-5348
oning	-5349
▁formula	-5350
▁gun	-5351
▁balanced	-5352
▁friendship	-5353
▁musc	-5354
▁residential	-5355
wal	-5356
▁fortune	-5357
▁cheating	-5358
▁addressed	-5359
▁fascinating	-5360
▁handling	-5361
▁cheer	-5362
▁unsure	-5363
▁enfor	-5364
▁meets	-5365
▁analys	-5366
▁constit	-5367
▁displays	-5368
▁revealing	-5369
xim	-5370
▁abo	-5371
▁recru	-5372
▁reaction	-5373
▁benefiting	-5374
icted	-5375
▁influence	-5376
▁everywhere	-5377
▁jams	-5378
▁prank	-5379
▁calcul	-5380
▁suit	-5381
▁creature	-5382
▁celebrities	-5383
▁pit	-5384
▁praise	-5385
▁biology	-5386
▁receives	-5387
▁sessions	-5388
▁bee	-5389
▁cooperating	-5390
▁predictions	-5391
▁underw	-5392
ancy	-5393
▁unhar	-5394
▁smaller	-5395
▁excessive	-5396
▁trains	-5397
▁knocked	-5398
▁unharmed	-5399
▁anonymous	-5400
▁specializes	-5401
▁engaged	-5402
▁portra	-5403
▁wondering	-5404
▁runs	-5405
▁soci	-5406
orating	-5407
▁mindful	-5408
verted	-5409
▁refused	-5410
▁traditions	-5411
▁born	-5412
▁milk	-5413
▁solving	-5414
▁temporary	-5415
▁otherwise	-5416
▁uncertainty	-5417
▁manufacturers	-5418
▁characteristics	-5419
▁size	-5420
▁accepted	-5421
▁noises	-5422
▁evalu	-5423
▁astronomers	-5424
▁promotions	-5425
ashes	-5426
▁refres	-5427
▁digital	-5428
▁warns	-5429
▁push	-5430
▁galax	-5431
▁rent	-5432
▁begins	-5433
amm	-5434
▁drug	-5435
▁publ	-5436
▁subsid	-5437
cepts	-5438
▁allevi	-5439
▁compre	-5440
▁shelters	-5441
▁industrial	-5442
mar	-5443
▁len	-5444
▁punish	-5445
▁spa	-5446
▁migr	-5447
▁practical	-5448
▁planets	-5449
▁reliance	-5450
igration	-5451
▁landmarks	-5452
▁hazardous	-5453
▁advertising	-5454
ood	-5455
▁actors	-5456
ache	-5457
▁revitalize	-5458
▁gains	-5459
▁thorough	-5460
▁restoration	-5461
gu	-5462
rowing	-5463
▁stabil	-5464
▁described	-5465
▁concepts	-5466
▁bed	-5467
▁resilience	-5468
▁update	-5469
▁ordinance	-5470
▁toler	-5471
▁log	-5472
▁concl	-5473
▁mort	-5474
▁corner	-5475
ker	-5476
▁pleased	-5477
▁withstand	-5478
▁steal	-5479
▁appealing	-5480
▁discrim	-5481
▁fert	-5482
▁nar	-5483
▁wishes	-5484
▁pictures	-5485
▁clues	-5486
▁advent	-5487
▁contag	-5488
▁dangerous	-5489
▁une	-5490
▁teens	-5491
▁flames	-5492
▁captured	-5493
▁restrictions	-5494
▁biod	-5495
▁basket	-5496
▁disappearance	-5497
▁pow	-5498
▁coins	-5499
▁contagious	-5500
▁bridges	-5501
▁committee	-5502
▁patrols	-5503
▁purchased	-5504
▁infest	-5505
▁reeling	-5506
▁disorders	-5507
▁isol	-5508
▁refunds	-5509
▁handmade	-5510
▁extensive	-5511
ective	-5512
▁planting	-5513
▁classrooms	-5514
char	-5515
▁taught	-5516
▁erupted	-5517
▁turnout	-5518
een	-5519
▁dinner	-5520
▁square	-5521
▁priority	-5522
▁scheduled	-5523
▁adjusting	-5524
▁gardening	-5525
▁distance	-5526
▁recon	-5527
▁ordered	-5528
▁potentially	-5529
mon	-5530
▁dy	-5531
▁financially	-5532
▁uncon	-5533
▁dump	-5534
▁deter	-5535
▁capable	-5536
▁sentence	-5537
▁cow	-5538
ums	-5539
▁eg	-5540
drated	-5541
▁roles	-5542
▁relaxed	-5543
▁fly	-5544
hable	-5545
▁wheel	-5546
▁wildfires	-5547
▁countryside	-5548
▁tactics	-5549
cket	-5550
▁golf	-5551
▁reserv	-5552
▁rein	-5553
▁attemp	-5554
▁sail	-5555
▁han	-5556
▁inhab	-5557
▁fortun	-5558
▁packages	-5559
▁collectors	-5560
▁coastal	-5561
▁unless	-5562
▁ju	-5563
▁quant	-5564
aled	-5565
▁accommodate	-5566
ado	-5567
▁attracts	-5568
▁streamline	-5569
▁romantic	-5570
▁pad	-5571
▁tourism	-5572
yond	-5573
▁produces	-5574
▁protoc	-5575
▁updated	-5576
▁strain	-5577
free	-5578
▁beyond	-5579
▁bands	-5580
▁ruling	-5581
▁speeds	-5582
▁select	-5583
▁covers	-5584
▁supported	-5585
▁airline	-5586
▁achieving	-5587
▁happier	-5588
organ	-5589
▁diagnose	-5590
▁wis	-5591
▁sort	-5592
▁invasive	-5593
▁earned	-5594
▁apartment	-5595
▁outf	-5596
▁told	-5597
ashing	-5598
▁backyard	-5599
▁teeth	-5600
▁slog	-5601
▁snacks	-5602
▁sheep	-5603
▁climbing	-5604
▁plastics	-5605
▁figures	-5606
▁processes	-5607
erves	-5608
▁stead	-5609
▁subjects	-5610
▁essentials	-5611
▁border	-5612
▁tells	-5613
▁expressed	-5614
▁lav	-5615
▁temple	-5616
▁transformed	-5617
▁circum	-5618
▁pestic	-5619
▁countless	-5620
▁festive	-5621
▁pilot	-5622
▁expedition	-5623
▁bottom	-5624
▁heavily	-5625
▁luckily	-5626
▁negotiations	-5627
▁colon	-5628
▁healing	-5629
▁competitors	-5630
erse	-5631
▁obes	-5632
▁coin	-5633
▁realistic	-5634
vant	-5635
eping	-5636
▁defective	-5637
▁perspectives	-5638
▁adopt	-5639
▁studio	-5640
▁frequent	-5641
▁royal	-5642
▁erosion	-5643
▁perpetrators	-5644
laim	-5645
owing	-5646
▁earlier	-5647
▁circumst	-5648
▁unemployment	-5649
▁administrators	-5650
▁files	-5651
▁courses	-5652
▁accidentally	-5653
▁caf	-5654
▁rewards	-5655
chers	-5656
▁organize	-5657
▁memorial	-5658
ster	-5659
▁unit	-5660
▁elev	-5661
▁hydrated	-5662
▁cab	-5663
▁maintaining	-5664
erts	-5665
itting	-5666
▁visible	-5667
▁zone	-5668
asant	-5669
▁escaped	-5670
▁picnics	-5671
▁enhan	-5672
ope	-5673
▁resulting	-5674
▁simply	-5675
▁currency	-5676
▁liqu	-5677
▁discussing	-5678
▁attractive	-5679
▁above	-5680
▁related	-5681
▁banks	-5682
▁recommending	-5683
▁noticed	-5684
▁fairness	-5685
▁lottery	-5686
▁engineering	-5687
▁developments	-5688
▁explain	-5689
▁fog	-5690
iding	-5691
▁confused	-5692
▁agriculture	-5693
uts	-5694
▁drawing	-5695
▁floodw	-5696
▁swimmer	-5697
▁generating	-5698
▁questioning	-5699
▁treasures	-5700
ifications	-5701
▁comprehens	-5702
▁mother	-5703
solving	-5704
▁hearts	-5705
▁streak	-5706
▁rot	-5707
▁navig	-5708
▁discrimination	-5709
▁sem	-5710
▁faith	-5711
▁overc	-5712
ections	-5713
▁stable	-5714
▁reconsider	-5715
▁summit	-5716
asy	-5717
wing	-5718
scious	-5719
▁packed	-5720
▁article	-5721
▁documentary	-5722
rator	-5723
liness	-5724
▁wisdom	-5725
▁integrity	-5726
▁watched	-5727
ccer	-5728
▁tom	-5729
▁dism	-5730
▁signals	-5731
▁schedules	-5732
▁recycl	-5733
▁soccer	-5734
▁partnership	-5735
▁deg	-5736
cution	-5737
▁exams	-5738
▁privacy	-5739
▁attacks	-5740
▁clients	-5741
▁discomfort	-5742
▁surrounded	-5743
▁particularly	-5744
▁leng	-5745
▁floodwaters	-5746
nels	-5747
uched	-5748
▁inno	-5749
ffective	-5750
anes	-5751
wning	-5752
▁amounts	-5753
▁illustr	-5754
▁initial	-5755
▁robbery	-5756
▁dna	-5757
▁pled	-5758
▁genetic	-5759
▁boom	-5760
▁butterfly	-5761
▁regardless	-5762
▁dancing	-5763
▁pressing	-5764
▁rough	-5765
▁refine	-5766
▁chances	-5767
▁pipes	-5768
▁brewery	-5769
▁welfare	-5770
▁classmates	-5771
▁sought	-5772
▁mas	-5773
▁points	-5774
▁decorations	-5775
▁floods	-5776
▁prizes	-5777
▁voc	-5778
uly	-5779
▁tell	-5780
▁imposs	-5781
▁ep	-5782
ifies	-5783
riage	-5784
▁vast	-5785
▁misunderst	-5786
▁shockwaves	-5787
▁underground	-5788
iar	-5789
▁virtual	-5790
▁smartphone	-5791
▁bran	-5792
ension	-5793
▁alm	-5794
▁dign	-5795
▁ware	-5796
▁burglar	-5797
▁formation	-5798
▁refund	-5799
▁waterways	-5800
▁matt	-5801
▁jury	-5802
▁flooded	-5803
▁operating	-5804
▁diab	-5805
▁employers	-5806
▁offenders	-5807
▁actor	-5808
related	-5809
▁homework	-5810
▁preventing	-5811
▁plays	-5812
prov	-5813
yers	-5814
▁mars	-5815
▁texture	-5816
▁homelessness	-5817
cur	-5818
▁convin	-5819
ribution	-5820
▁alleviate	-5821
▁baff	-5822
▁cert	-5823
▁creations	-5824
▁five	-5825
▁requirements	-5826
ray	-5827
▁lunch	-5828
▁honest	-5829
▁exceptional	-5830
atching	-5831
▁shapes	-5832
▁harming	-5833
orrow	-5834
▁foundation	-5835
▁tele	-5836
▁legend	-5837
▁verdict	-5838
▁rej	-5839
▁root	-5840
▁consc	-5841
▁accessories	-5842
urea	-5843
▁burea	-5844
▁debts	-5845
▁missed	-5846
▁stressed	-5847
▁reaching	-5848
▁debated	-5849
▁ree	-5850
▁fired	-5851
▁birthday	-5852
▁sod	-5853
rm	-5854
arrass	-5855
▁joined	-5856
▁medicines	-5857
▁embarrass	-5858
oph	-5859
▁jail	-5860
▁clinic	-5861
▁nations	-5862
▁moon	-5863
▁exchange	-5864
▁evolution	-5865
▁connections	-5866
idity	-5867
▁alloc	-5868
▁seats	-5869
▁accus	-5870
ription	-5871
▁desire	-5872
▁introducing	-5873
▁marks	-5874
▁custody	-5875
▁honesty	-5876
▁trick	-5877
▁donor	-5878
▁wid	-5879
unter	-5880
▁basketball	-5881
▁teaches	-5882
▁surveyed	-5883
rat	-5884
▁urg	-5885
▁screen	-5886
▁hackers	-5887
▁jokes	-5888
▁overnight	-5889
rents	-5890
▁bankrupt	-5891
▁compromise	-5892
▁notes	-5893
atell	-5894
▁peers	-5895
▁profit	-5896
▁prohib	-5897
▁satell	-5898
▁ok	-5899
▁cafe	-5900
▁undergone	-5901
▁coaches	-5902
aded	-5903
▁ble	-5904
▁okay	-5905
▁personality	-5906
▁mos	-5907
▁returns	-5908
▁selection	-5909
wave	-5910
▁prepar	-5911
inction	-5912
▁thanked	-5913
▁seating	-5914
▁circumstances	-5915
▁talks	-5916
aker	-5917
▁impr	-5918
apping	-5919
▁panels	-5920
▁id	-5921
iment	-5922
▁cyber	-5923
▁terror	-5924
▁ult	-5925
dened	-5926
▁cargo	-5927
▁embe	-5928
▁denying	-5929
airs	-5930
▁radio	-5931
▁loose	-5932
▁photographer	-5933
riate	-5934
▁beliefs	-5935
cies	-5936
▁heatwave	-5937
▁civilizations	-5938
▁releasing	-5939
orious	-5940
▁speaker	-5941
etime	-5942
▁videos	-5943
▁unlikely	-5944
book	-5945
▁unre	-5946
▁arrests	-5947
▁drain	-5948
▁movies	-5949
▁transparent	-5950
▁wet	-5951
▁narrow	-5952
▁rip	-5953
▁diabet	-5954
▁discip	-5955
▁switch	-5956
▁analysis	-5957
▁activist	-5958
▁perfection	-5959
umps	-5960
▁datab	-5961
▁input	-5962
▁covered	-5963
▁avoiding	-5964
▁credit	-5965
▁awe	-5966
usions	-5967
▁legis	-5968
▁savings	-5969
▁beachgoers	-5970
▁embezz	-5971
▁enem	-5972
▁deploy	-5973
▁transc	-5974
▁dramatic	-5975
ky	-5976
▁defin	-5977
▁vacant	-5978
rend	-5979
store	-5980
▁offensive	-5981
▁volcano	-5982
▁syn	-5983
het	-5984
▁beer	-5985
▁wing	-5986
▁cleared	-5987
▁physics	-5988
▁refe	-5989
▁possibility	-5990
▁image	-5991
▁fees	-5992
▁odds	-5993
▁extremely	-5994
▁smartphones	-5995
▁diss	-5996
▁gest	-5997
rients	-5998
▁legisl	-5999
▁nutrients	-6000
▁capital	-6001
▁backlash	-6002
▁predicted	-6003
rees	-6004
▁pace	-6005
icyc	-6006
inent	-6007
▁knows	-6008
▁older	-6009
▁biggest	-6010
▁advocates	-6011
▁flash	-6012
▁enthusias	-6013
▁sleek	-6014
▁instructions	-6015
▁usage	-6016
eration	-6017
▁perfume	-6018
▁micro	-6019
ders	-6020
▁chap	-6021
▁crue	-6022
▁perman	-6023
▁unb	-6024
▁beaches	-6025
math	-6026
▁corpor	-6027
▁thank	-6028
▁territ	-6029
▁trucks	-6030
▁warmer	-6031
▁obesity	-6032
▁selflessness	-6033
oty	-6034
▁impossible	-6035
▁attempt	-6036
▁aftermath	-6037
▁protocols	-6038
▁bicyc	-6039
▁arrange	-6040
▁petition	-6041
have	-6042
resses	-6043
▁owned	-6044
▁guided	-6045
▁observed	-6046
offs	-6047
▁spl	-6048
kirts	-6049
▁pin	-6050
▁outskirts	-6051
▁filed	-6052
▁hiding	-6053
▁truly	-6054
▁absorb	-6055
▁packaging	-6056
mission	-6057
▁letters	-6058
▁completion	-6059
▁uniforms	-6060
storm	-6061
▁angry	-6062
▁seeks	-6063
▁miners	-6064
▁prove	-6065
provoking	-6066
ags	-6067
▁arms	-6068
▁trib	-6069
▁suffer	-6070
▁version	-6071
▁independence	-6072
ault	-6073
andals	-6074
▁apology	-6075
▁excellence	-6076
▁lightweight	-6077
▁resignation	-6078
▁mut	-6079
▁fence	-6080
▁explorer	-6081
reck	-6082
bling	-6083
▁drawn	-6084
▁counter	-6085
ran	-6086
▁voted	-6087
▁requiring	-6088
▁bow	-6089
▁antib	-6090
▁inhabit	-6091
▁contained	-6092
▁competitor	-6093
▁bom	-6094
▁sigh	-6095
▁showcases	-6096
pass	-6097
usable	-6098
▁sunny	-6099
▁sunset	-6100
▁sightings	-6101
wned	-6102
▁pill	-6103
▁decide	-6104
▁arrival	-6105
▁reusable	-6106
▁seat	-6107
▁fights	-6108
▁refugees	-6109
▁incorporating	-6110
▁revolutionizing	-6111
▁distribut	-6112
▁cogn	-6113
col	-6114
▁satisf	-6115
▁discovers	-6116
▁influx	-6117
▁tricks	-6118
▁targeted	-6119
▁haven	-6120
▁extinction	-6121
▁mathematic	-6122
▁inspires	-6123
▁lawn	-6124
▁chees	-6125
▁soup	-6126
▁visual	-6127
▁pouring	-6128
▁exact	-6129
▁fertil	-6130
ott	-6131
▁lect	-6132
▁destinations	-6133
▁discovering	-6134
▁elected	-6135
▁suitable	-6136
▁eleg	-6137
▁panel	-6138
▁round	-6139
▁haunted	-6140
▁warnings	-6141
▁overcrow	-6142
▁approaches	-6143
▁categ	-6144
▁reopen	-6145
▁immigr	-6146
iot	-6147
▁pipe	-6148
▁routines	-6149
▁enthusiasm	-6150
▁deer	-6151
▁snake	-6152
▁tense	-6153
▁accounts	-6154
iders	-6155
▁resistant	-6156
▁inters	-6157
▁dent	-6158
▁enter	-6159
▁marked	-6160
▁oceans	-6161
▁tracks	-6162
▁prisoners	-6163
▁frequently	-6164
ixt	-6165
udes	-6166
▁chase	-6167
▁accomplishments	-6168
key	-6169
world	-6170
▁ideal	-6171
▁platforms	-6172
▁lately	-6173
▁violations	-6174
gment	-6175
osis	-6176
phan	-6177
▁sed	-6178
▁rust	-6179
▁releases	-6180
▁worldwide	-6181
▁falls	-6182
▁cell	-6183
rise	-6184
▁sizes	-6185
▁grass	-6186
▁passing	-6187
▁jack	-6188
▁surviv	-6189
▁launching	-6190
▁playgrounds	-6191
ret	-6192
▁expands	-6193
▁ward	-6194
▁bodies	-6195
▁entered	-6196
▁demolished	-6197
▁tiny	-6198
▁sandw	-6199
▁cannot	-6200
▁interpre	-6201
▁encouragement	-6202
▁disappointment	-6203
▁disturbing	-6204
▁scenar	-6205
▁emer	-6206
▁salon	-6207
▁visits	-6208
▁spacecraft	-6209
▁lift	-6210
▁phr	-6211
▁experimenting	-6212
▁caps	-6213
▁democ	-6214
▁freshest	-6215
▁architects	-6216
▁earn	-6217
▁camping	-6218
▁traveler	-6219
▁unwind	-6220
▁surfaces	-6221
▁signing	-6222
▁database	-6223
▁baker	-6224
▁botan	-6225
▁promp	-6226
▁rivers	-6227
▁scared	-6228
▁misin	-6229
▁diabetes	-6230
▁employer	-6231
▁fed	-6232
entional	-6233
▁reasons	-6234
▁harmless	-6235
▁decreased	-6236
elling	-6237
uality	-6238
▁monument	-6239
▁weak	-6240
▁hobby	-6241
▁forests	-6242
▁occasions	-6243
▁alleged	-6244
▁harness	-6245
▁roaming	-6246
▁concerts	-6247
bled	-6248
lihood	-6249
hand	-6250
orous	-6251
▁drew	-6252
▁horr	-6253
▁weighing	-6254
▁engagement	-6255
bit	-6256
uments	-6257
▁cognitive	-6258
▁flat	-6259
▁anticipated	-6260
urt	-6261
yer	-6262
▁invested	-6263
▁reson	-6264
▁cleaned	-6265
▁harass	-6266
▁comprehensive	-6267
▁whist	-6268
▁breakf	-6269
▁usually	-6270
▁nurs	-6271
▁print	-6272
▁champion	-6273
▁genres	-6274
keep	-6275
▁dut	-6276
▁riding	-6277
▁baked	-6278
▁newly	-6279
▁climber	-6280
▁scram	-6281
▁aqu	-6282
▁speeches	-6283
▁neck	-6284
▁solid	-6285
▁couldn	-6286
che	-6287
▁tim	-6288
▁smile	-6289
▁troub	-6290
▁slogans	-6291
▁fing	-6292
illance	-6293
▁acting	-6294
▁estate	-6295
▁workforce	-6296
▁surveillance	-6297
▁conversations	-6298
attended	-6299
▁cyclist	-6300
▁shipment	-6301
▁simplify	-6302
asis	-6303
▁melting	-6304
▁gem	-6305
▁kill	-6306
▁giant	-6307
▁questioned	-6308
▁warehouse	-6309
▁defic	-6310
▁herself	-6311
▁attic	-6312
▁highlighting	-6313
▁peak	-6314
▁layer	-6315
▁largest	-6316
▁blankets	-6317
▁pizz	-6318
▁mism	-6319
▁banned	-6320
▁execut	-6321
conscious	-6322
▁accusations	-6323
haul	-6324
lands	-6325
▁rush	-6326
▁nom	-6327
▁negotiate	-6328
▁sensation	-6329
▁tears	-6330
verage	-6331
▁enforced	-6332
▁therapist	-6333
room	-6334
▁flaw	-6335
▁pesticides	-6336
▁impl	-6337
▁thir	-6338
▁accordingly	-6339
roll	-6340
▁driven	-6341
▁straight	-6342
▁headlines	-6343
olved	-6344
▁pose	-6345
af	-6346
▁alt	-6347
aution	-6348
▁status	-6349
▁permanent	-6350
ords	-6351
▁dial	-6352
▁filling	-6353
▁charm	-6354
▁shade	-6355
▁strengt	-6356
▁oasis	-6357
▁revolutionizes	-6358
hool	-6359
▁exposure	-6360
▁pursuing	-6361
▁precaution	-6362
▁capac	-6363
▁emotion	-6364
▁bid	-6365
▁marg	-6366
▁sour	-6367
▁locate	-6368
▁transpl	-6369
▁laund	-6370
▁loans	-6371
▁respir	-6372
▁collabor	-6373
▁mobility	-6374
cher	-6375
▁honey	-6376
▁diction	-6377
▁authority	-6378
▁exclusive	-6379
▁respiratory	-6380
▁benefic	-6381
aving	-6382
bbies	-6383
▁mail	-6384
▁rescu	-6385
▁planted	-6386
▁barriers	-6387
▁scammers	-6388
▁merg	-6389
stal	-6390
▁investments	-6391
aps	-6392
season	-6393
▁performs	-6394
▁hat	-6395
▁paths	-6396
▁opinion	-6397
ndom	-6398
▁spons	-6399
▁intim	-6400
▁overhaul	-6401
▁positions	-6402
▁god	-6403
isions	-6404
▁imper	-6405
▁tribute	-6406
▁fortunately	-6407
▁random	-6408
▁regional	-6409
chest	-6410
▁orchest	-6411
▁cruel	-6412
▁offices	-6413
▁accepting	-6414
▁symbols	-6415
▁adds	-6416
▁payments	-6417
▁supports	-6418
▁conflicts	-6419
▁embark	-6420
▁sacrific	-6421
▁asse	-6422
▁grant	-6423
▁prefer	-6424
▁racing	-6425
▁persist	-6426
▁retirement	-6427
▁stere	-6428
▁placed	-6429
▁defended	-6430
▁constructed	-6431
▁stiff	-6432
ologist	-6433
▁mentorship	-6434
▁occurrence	-6435
▁tum	-6436
▁recreation	-6437
▁cats	-6438
▁reapp	-6439
ette	-6440
iffs	-6441
▁defendant	-6442
well	-6443
▁glow	-6444
stricken	-6445
▁forgot	-6446
▁stick	-6447
iti	-6448
▁nerv	-6449
▁turb	-6450
▁policymakers	-6451
ffiti	-6452
cyc	-6453
▁galaxy	-6454
▁graffiti	-6455
▁addressing	-6456
▁fram	-6457
▁solo	-6458
▁fewer	-6459
▁pays	-6460
▁miracul	-6461
road	-6462
▁rit	-6463
▁distill	-6464
▁prob	-6465
▁advis	-6466
▁infestation	-6467
▁amid	-6468
▁culinary	-6469
▁inhabitants	-6470
udd	-6471
▁minds	-6472
acherous	-6473
▁ingredient	-6474
▁ali	-6475
▁broadc	-6476
▁treacherous	-6477
grad	-6478
▁unhe	-6479
▁spends	-6480
▁groceries	-6481
▁elimin	-6482
▁baseball	-6483
uming	-6484
priv	-6485
▁congrat	-6486
▁laughing	-6487
▁stocking	-6488
▁memorable	-6489
▁credits	-6490
▁returning	-6491
▁empt	-6492
anship	-6493
▁targets	-6494
▁musical	-6495
▁infected	-6496
▁conscious	-6497
▁tiss	-6498
▁scheme	-6499
▁instruments	-6500
▁guit	-6501
▁landing	-6502
▁principal	-6503
▁promotion	-6504
▁announcement	-6505
▁heir	-6506
▁superv	-6507
▁slides	-6508
▁depend	-6509
lig	-6510
▁samples	-6511
▁adjustments	-6512
apers	-6513
▁coord	-6514
▁tooth	-6515
▁bookstore	-6516
▁contributing	-6517
lesc	-6518
▁pulled	-6519
▁scores	-6520
eem	-6521
▁telesc	-6522
▁entertaining	-6523
rooms	-6524
▁estim	-6525
▁compost	-6526
▁realized	-6527
▁movements	-6528
▁rat	-6529
▁breakfast	-6530
▁betra	-6531
▁baking	-6532
▁write	-6533
bl	-6534
▁stepped	-6535
pper	-6536
▁vit	-6537
arily	-6538
▁planes	-6539
effective	-6540
▁potho	-6541
▁thefts	-6542
▁developer	-6543
dated	-6544
▁experiments	-6545
▁fem	-6546
▁stole	-6547
▁proceeds	-6548
▁slop	-6549
▁environments	-6550
▁introduces	-6551
▁subsc	-6552
▁employment	-6553
▁gps	-6554
▁catchy	-6555
▁hunger	-6556
▁closing	-6557
▁instrument	-6558
arer	-6559
▁urgent	-6560
▁elements	-6561
ranking	-6562
▁leaks	-6563
▁bureauc	-6564
umn	-6565
▁brib	-6566
ressed	-6567
▁carried	-6568
▁tornado	-6569
▁outdated	-6570
▁collapsed	-6571
forest	-6572
▁stall	-6573
▁assets	-6574
▁gamers	-6575
▁disrupted	-6576
ilitation	-6577
▁soph	-6578
▁cancelled	-6579
▁territory	-6580
▁editor	-6581
esses	-6582
▁unde	-6583
▁seeds	-6584
▁pedestrians	-6585
▁tid	-6586
▁nervous	-6587
▁landscapes	-6588
gen	-6589
▁pounds	-6590
▁tunnels	-6591
▁advers	-6592
▁staffed	-6593
racy	-6594
▁purposes	-6595
uded	-6596
▁blast	-6597
▁minimal	-6598
▁saddened	-6599
▁deeply	-6600
▁anger	-6601
▁livelihood	-6602
▁tear	-6603
▁philosopher	-6604
rip	-6605
▁writers	-6606
▁capacity	-6607
▁flee	-6608
▁argument	-6609
▁dess	-6610
▁inac	-6611
▁twist	-6612
▁gotten	-6613
ested	-6614
shine	-6615
▁escalated	-6616
ront	-6617
▁spectac	-6618
▁medications	-6619
itted	-6620
▁exceed	-6621
aked	-6622
▁resilient	-6623
urage	-6624
ivities	-6625
▁breach	-6626
▁chocol	-6627
▁incredibly	-6628
▁queen	-6629
▁nurses	-6630
▁patron	-6631
▁blue	-6632
▁encl	-6633
ography	-6634
▁extract	-6635
▁plaguing	-6636
▁wandered	-6637
lar	-6638
▁applying	-6639
▁displace	-6640
▁strengthen	-6641
▁bun	-6642
▁conve	-6643
▁heads	-6644
▁insight	-6645
▁relocate	-6646
▁economists	-6647
ubs	-6648
▁arrives	-6649
dra	-6650
iosity	-6651
▁sunshine	-6652
▁involving	-6653
yr	-6654
▁wra	-6655
▁boun	-6656
▁united	-6657
▁founders	-6658
hetic	-6659
▁curiosity	-6660
arming	-6661
▁approp	-6662
▁scenic	-6663
▁emerging	-6664
▁astronaut	-6665
▁trips	-6666
▁suspended	-6667
▁gaming	-6668
thinking	-6669
▁reception	-6670
▁arguments	-6671
▁delicate	-6672
▁thin	-6673
▁advocating	-6674
▁committing	-6675
athy	-6676
▁displaced	-6677
▁festivals	-6678
▁conc	-6679
▁establish	-6680
▁perpetrator	-6681
▁rehabilitation	-6682
▁una	-6683
▁carp	-6684
▁transfer	-6685
▁waterway	-6686
▁beginning	-6687
▁grid	-6688
▁anywhere	-6689
▁departments	-6690
▁discussions	-6691
▁clever	-6692
▁hungry	-6693
▁acclaim	-6694
▁belonging	-6695
▁reflection	-6696
▁gho	-6697
▁sentenced	-6698
▁mim	-6699
▁explan	-6700
▁pilots	-6701
▁contribute	-6702
uven	-6703
▁hes	-6704
▁smugg	-6705
▁separate	-6706
▁stations	-6707
▁unseason	-6708
▁manip	-6709
▁historian	-6710
▁retailers	-6711
▁condem	-6712
▁speaks	-6713
▁unhealth	-6714
▁ethics	-6715
▁mathematicians	-6716
▁cram	-6717
▁vacu	-6718
▁artisans	-6719
▁sidewal	-6720
uls	-6721
istry	-6722
▁outl	-6723
▁hobbies	-6724
▁enemy	-6725
▁prone	-6726
▁killed	-6727
▁recreational	-6728
quate	-6729
▁defense	-6730
speed	-6731
▁cared	-6732
▁disturbance	-6733
writ	-6734
keys	-6735
▁fairly	-6736
▁et	-6737
▁rehe	-6738
▁instant	-6739
▁fisherman	-6740
gi	-6741
manship	-6742
▁separated	-6743
uctu	-6744
▁flour	-6745
▁fluctu	-6746
inery	-6747
▁horiz	-6748
▁deployed	-6749
▁landl	-6750
urities	-6751
▁unfairly	-6752
ero	-6753
based	-6754
▁fant	-6755
▁restric	-6756
▁revolutionary	-6757
▁eggs	-6758
lights	-6759
▁stabilize	-6760
onom	-6761
▁tank	-6762
▁slipp	-6763
▁silent	-6764
▁reunion	-6765
▁touched	-6766
▁grows	-6767
▁caring	-6768
▁donates	-6769
▁hoped	-6770
ferences	-6771
▁hunters	-6772
▁votes	-6773
▁cheered	-6774
▁analyzing	-6775
▁disorder	-6776
▁purchases	-6777
▁interviews	-6778
▁institution	-6779
vis	-6780
▁rail	-6781
▁recommendations	-6782
▁ventil	-6783
▁inher	-6784
▁psychology	-6785
zing	-6786
▁fatig	-6787
▁cooler	-6788
▁breathe	-6789
▁seekers	-6790
▁bars	-6791
alities	-6792
▁convinced	-6793
▁exercising	-6794
▁drops	-6795
▁clut	-6796
▁infection	-6797
▁iron	-6798
▁boxer	-6799
umbling	-6800
▁moist	-6801
▁spirits	-6802
▁lone	-6803
▁decade	-6804
▁cup	-6805
▁deeper	-6806
▁immigrants	-6807
▁choir	-6808
▁central	-6809
▁license	-6810
▁tutoring	-6811
▁intr	-6812
▁march	-6813
▁patience	-6814
▁rescuers	-6815
holders	-6816
▁ton	-6817
▁pharm	-6818
▁dictionary	-6819
har	-6820
▁cans	-6821
▁graph	-6822
▁inspection	-6823
▁liber	-6824
▁spoke	-6825
▁ads	-6826
lings	-6827
▁nice	-6828
▁frost	-6829
▁misle	-6830
▁unaware	-6831
▁struggled	-6832
▁villagers	-6833
▁bath	-6834
▁algorithm	-6835
lost	-6836
approp	-6837
▁threatened	-6838
▁toll	-6839
▁hygi	-6840
▁repeat	-6841
▁orchestra	-6842
▁unhealthy	-6843
▁typ	-6844
▁wire	-6845
esteem	-6846
▁discipline	-6847
▁pants	-6848
▁philosophers	-6849
oons	-6850
▁golfer	-6851
▁overtime	-6852
▁cards	-6853
▁butt	-6854
eted	-6855
▁ask	-6856
▁brut	-6857
▁baffled	-6858
▁married	-6859
▁unsa	-6860
▁foiled	-6861
▁immune	-6862
▁aiming	-6863
▁inapprop	-6864
▁keeps	-6865
▁wowed	-6866
▁correctly	-6867
▁dece	-6868
▁preparation	-6869
▁preservation	-6870
▁clog	-6871
▁maxim	-6872
▁almost	-6873
▁poetry	-6874
icking	-6875
ptions	-6876
▁magician	-6877
▁orde	-6878
▁command	-6879
▁reaches	-6880
▁championships	-6881
bor	-6882
▁overlo	-6883
▁beating	-6884
▁existence	-6885
▁troph	-6886
▁scale	-6887
lements	-6888
▁ordeal	-6889
▁relies	-6890
▁passions	-6891
▁ampl	-6892
▁casin	-6893
▁fails	-6894
▁guitar	-6895
▁artisan	-6896
▁demolition	-6897
▁signal	-6898
▁enhance	-6899
▁gardener	-6900
▁produced	-6901
▁replacement	-6902
arians	-6903
▁adventures	-6904
▁absol	-6905
▁behaviors	-6906
▁contestants	-6907
ares	-6908
raid	-6909
▁customs	-6910
rid	-6911
bing	-6912
▁drugs	-6913
▁depths	-6914
▁slight	-6915
▁tracking	-6916
▁remed	-6917
▁teammates	-6918
▁length	-6919
▁processed	-6920
▁seam	-6921
▁scams	-6922
▁authen	-6923
▁astronauts	-6924
▁recommended	-6925
▁archaeology	-6926
ively	-6927
umped	-6928
▁beat	-6929
▁respects	-6930
oting	-6931
▁died	-6932
▁eruption	-6933
▁endurance	-6934
ock	-6935
found	-6936
▁ling	-6937
▁explo	-6938
▁discon	-6939
▁completing	-6940
▁bankruptcy	-6941
resp	-6942
seekers	-6943
▁cracks	-6944
▁younger	-6945
ointments	-6946
▁attitude	-6947
▁minerals	-6948
▁newfound	-6949
▁candy	-6950
▁cheers	-6951
▁washing	-6952
icts	-6953
ship	-6954
onies	-6955
▁assemb	-6956
▁mathemat	-6957
▁companions	-6958
ley	-6959
▁stereoty	-6960
▁theories	-6961
cr	-6962
▁ack	-6963
▁acknow	-6964
▁refrig	-6965
▁soldier	-6966
rown	-6967
▁pian	-6968
▁section	-6969
▁marriage	-6970
▁hosts	-6971
▁cheese	-6972
▁loyalty	-6973
▁warming	-6974
▁beneficial	-6975
▁presenting	-6976
▁representatives	-6977
▁rac	-6978
▁tackle	-6979
▁discipl	-6980
▁dropped	-6981
lics	-6982
▁six	-6983
▁bon	-6984
▁moves	-6985
▁attribut	-6986
▁sav	-6987
fully	-6988
▁weap	-6989
▁opting	-6990
▁classical	-6991
▁liquid	-6992
▁photographs	-6993
ileged	-6994
▁transact	-6995
▁prominent	-6996
▁glit	-6997
▁grav	-6998
▁robots	-6999
▁stance	-7000
▁distinct	-7001
▁researching	-7002
▁participated	-7003
▁appears	-7004
▁electronic	-7005
▁parl	-7006
▁organic	-7007
▁shore	-7008
▁units	-7009
▁lin	-7010
iable	-7011
▁joint	-7012
uster	-7013
▁drama	-7014
▁spectators	-7015
▁approaching	-7016
ius	-7017
jud	-7018
▁restrictive	-7019
▁cher	-7020
▁trek	-7021
▁investigators	-7022
▁unlo	-7023
▁por	-7024
▁satur	-7025
▁hazards	-7026
▁tape	-7027
▁ov	-7028
▁tasty	-7029
▁trauma	-7030
▁sailors	-7031
▁explosion	-7032
▁unac	-7033
▁chest	-7034
▁peacefully	-7035
▁honors	-7036
▁sweeping	-7037
▁festivities	-7038
▁yell	-7039
▁babies	-7040
▁unwanted	-7041
attle	-7042
▁farms	-7043
▁bins	-7044
▁chapter	-7045
riptions	-7046
▁apologize	-7047
▁exhausted	-7048
▁chat	-7049
▁withdra	-7050
▁stem	-7051
▁parent	-7052
▁retain	-7053
▁marketed	-7054
eral	-7055
▁unin	-7056
▁digest	-7057
▁million	-7058
▁potholes	-7059
▁sew	-7060
▁amends	-7061
▁allergies	-7062
▁forecasting	-7063
▁acce	-7064
▁least	-7065
▁fleet	-7066
▁acceler	-7067
▁confirm	-7068
▁convicted	-7069
▁involvement	-7070
aste	-7071
pack	-7072
▁diam	-7073
▁grie	-7074
▁ruled	-7075
▁vandals	-7076
▁divor	-7077
▁forget	-7078
▁shining	-7079
▁bears	-7080
▁fount	-7081
▁declining	-7082
▁brief	-7083
▁spices	-7084
▁abund	-7085
▁freely	-7086
▁precise	-7087
▁misleading	-7088
▁doub	-7089
▁cuisines	-7090
▁discrimin	-7091
▁cens	-7092
▁aspect	-7093
▁empathy	-7094
▁pledged	-7095
iches	-7096
▁blind	-7097
atically	-7098
▁relative	-7099
▁removing	-7100
▁tip	-7101
▁dirt	-7102
▁pros	-7103
▁father	-7104
▁shortages	-7105
usts	-7106
▁hate	-7107
pot	-7108
▁row	-7109
erted	-7110
▁cake	-7111
▁mand	-7112
aws	-7113
izer	-7114
▁culpr	-7115
▁inhib	-7116
▁burglars	-7117
▁inviting	-7118
▁doz	-7119
artial	-7120
▁adversity	-7121
▁diagnosed	-7122
▁carpet	-7123
▁bottled	-7124
▁joining	-7125
▁credited	-7126
▁investor	-7127
▁collector	-7128
▁gad	-7129
▁drowning	-7130
atile	-7131
▁liv	-7132
▁stit	-7133
▁gadget	-7134
▁heroic	-7135
▁punishment	-7136
ych	-7137
▁dense	-7138
▁psych	-7139
▁assum	-7140
▁retreat	-7141
raper	-7142
▁checks	-7143
▁dealers	-7144
▁exhaust	-7145
case	-7146
▁soar	-7147
▁reopened	-7148
▁association	-7149
xes	-7150
atches	-7151
▁congreg	-7152
▁damaging	-7153
▁generated	-7154
▁soot	-7155
▁holidays	-7156
▁journalist	-7157
▁sights	-7158
▁donors	-7159
▁fate	-7160
▁passenger	-7161
▁instructor	-7162
▁butterflies	-7163
sters	-7164
▁gender	-7165
▁lur	-7166
▁wonders	-7167
▁regulate	-7168
▁pending	-7169
▁themes	-7170
▁average	-7171
▁distress	-7172
▁boss	-7173
▁knew	-7174
▁fascinated	-7175
▁vaccinated	-7176
▁persu	-7177
▁sites	-7178
▁workout	-7179
ener	-7180
▁burden	-7181
▁counsel	-7182
▁layoffs	-7183
ugged	-7184
▁fatigue	-7185
▁joke	-7186
▁immers	-7187
▁drainage	-7188
▁fee	-7189
▁lightning	-7190
▁occurring	-7191
▁perfecting	-7192
ipher	-7193
▁speakers	-7194
▁cig	-7195
▁denies	-7196
▁commission	-7197
eter	-7198
▁yard	-7199
▁twins	-7200
▁vowed	-7201
▁explanation	-7202
ney	-7203
urse	-7204
▁inmates	-7205
▁pleasant	-7206
▁beginners	-7207
ysc	-7208
▁tot	-7209
▁motivation	-7210
▁competitions	-7211
▁literacy	-7212
▁scholarships	-7213
▁funny	-7214
▁dancers	-7215
▁corporations	-7216
itudes	-7217
▁impurities	-7218
rie	-7219
▁skysc	-7220
▁concent	-7221
▁kidn	-7222
▁replic	-7223
▁forgotten	-7224
▁recommends	-7225
▁brown	-7226
▁geta	-7227
▁tires	-7228
▁medium	-7229
▁minority	-7230
▁desperate	-7231
▁loan	-7232
▁shot	-7233
▁reprodu	-7234
▁scrut	-7235
▁confusing	-7236
▁candles	-7237
▁survivors	-7238
▁afraid	-7239
▁clouds	-7240
▁observ	-7241
▁partner	-7242
▁lad	-7243
▁citizen	-7244
▁dressed	-7245
▁utility	-7246
▁bug	-7247
▁entr	-7248
▁curious	-7249
▁applause	-7250
▁loses	-7251
▁prescrib	-7252
▁grants	-7253
▁pastor	-7254
▁pastries	-7255
▁empty	-7256
▁retrie	-7257
▁lifetime	-7258
privileged	-7259
▁underprivileged	-7260
▁pair	-7261
▁catal	-7262
▁dumping	-7263
▁migration	-7264
▁van	-7265
▁prun	-7266
▁dirty	-7267
▁satellite	-7268
ione	-7269
▁wol	-7270
▁pione	-7271
▁flor	-7272
▁submit	-7273
isms	-7274
▁letter	-7275
ris	-7276
▁mortg	-7277
ritious	-7278
▁campaigns	-7279
▁nutritious	-7280
inning	-7281
▁chicken	-7282
▁connects	-7283
▁remained	-7284
▁reviewed	-7285
▁stopping	-7286
▁factor	-7287
▁airlines	-7288
▁precision	-7289
▁snap	-7290
▁absent	-7291
maint	-7292
▁rocked	-7293
egrad	-7294
▁rabb	-7295
▁defeat	-7296
▁prosper	-7297
egradable	-7298
respected	-7299
▁factories	-7300
▁appreciated	-7301
▁bonds	-7302
▁unfortun	-7303
▁adapting	-7304
▁precious	-7305
▁diver	-7306
▁finance	-7307
▁catching	-7308
▁half	-7309
lasting	-7310
▁skyline	-7311
▁ram	-7312
visit	-7313
▁clearly	-7314
▁anticipating	-7315
▁buff	-7316
▁hesit	-7317
▁confirmed	-7318
rons	-7319
▁origins	-7320
▁boats	-7321
▁offerings	-7322
comfortable	-7323
▁discounted	-7324
▁draws	-7325
▁premie	-7326
▁lawmakers	-7327
▁literature	-7328
▁livelihoods	-7329
▁uncomfortable	-7330
▁posing	-7331
vable	-7332
▁duty	-7333
▁consol	-7334
▁marvel	-7335
uce	-7336
▁wise	-7337
▁burst	-7338
▁costumes	-7339
izers	-7340
▁boos	-7341
▁infring	-7342
oe	-7343
▁ox	-7344
▁here	-7345
▁mosqu	-7346
▁articles	-7347
▁regulation	-7348
▁weld	-7349
▁prote	-7350
▁puzzle	-7351
▁battery	-7352
▁crackdown	-7353
▁departure	-7354
▁hurricane	-7355
▁mud	-7356
▁bake	-7357
▁multi	-7358
▁antique	-7359
▁dyn	-7360
inity	-7361
▁vying	-7362
▁summ	-7363
▁decorated	-7364
▁biodegradable	-7365
▁names	-7366
▁forcing	-7367
▁relying	-7368
▁motorcyc	-7369
▁reminding	-7370
▁criticizing	-7371
▁cos	-7372
eness	-7373
▁hires	-7374
▁interf	-7375
▁clarify	-7376
▁stunned	-7377
▁cater	-7378
▁picking	-7379
▁controlled	-7380
warming	-7381
▁shaped	-7382
▁rechar	-7383
pay	-7384
▁intimid	-7385
▁ic	-7386
▁mole	-7387
▁salt	-7388
▁rewarding	-7389
▁presentation	-7390
▁courage	-7391
▁emphasized	-7392
▁celebrations	-7393
▁populations	-7394
▁undert	-7395
▁instructors	-7396
▁literary	-7397
▁cracking	-7398
▁pizza	-7399
▁revers	-7400
▁hygiene	-7401
▁producers	-7402
▁infections	-7403
amps	-7404
▁wax	-7405
▁clubs	-7406
▁heirlo	-7407
▁inventors	-7408
▁inspectors	-7409
getic	-7410
▁hurricanes	-7411
rete	-7412
▁ener	-7413
▁smok	-7414
▁approval	-7415
▁wheelcha	-7416
▁energetic	-7417
run	-7418
▁curt	-7419
▁unsafe	-7420
▁failing	-7421
▁completely	-7422
▁swings	-7423
irt	-7424
▁lush	-7425
▁debut	-7426
▁wrink	-7427
▁sunlight	-7428
▁afterno	-7429
▁portable	-7430
▁incorrect	-7431
▁fragr	-7432
▁casual	-7433
▁lion	-7434
▁risen	-7435
▁calming	-7436
▁misusing	-7437
apped	-7438
▁stro	-7439
▁format	-7440
▁portion	-7441
▁veterans	-7442
▁ski	-7443
▁tang	-7444
▁formal	-7445
▁relevant	-7446
▁qualified	-7447
▁reminders	-7448
▁composition	-7449
▁vitam	-7450
▁kingdom	-7451
▁currents	-7452
▁statistics	-7453
▁diets	-7454
▁polluted	-7455
▁clash	-7456
▁paral	-7457
▁abroad	-7458
▁brains	-7459
▁predators	-7460
acher	-7461
▁medi	-7462
▁nort	-7463
▁align	-7464
▁unfold	-7465
▁pedestrian	-7466
▁pest	-7467
▁accessibility	-7468
rew	-7469
▁cooks	-7470
▁bustling	-7471
▁chocolate	-7472
▁recession	-7473
▁filt	-7474
ecting	-7475
▁representation	-7476
ailed	-7477
ither	-7478
▁gram	-7479
▁quit	-7480
look	-7481
▁bribes	-7482
▁muscles	-7483
▁attacked	-7484
▁interviewing	-7485
essed	-7486
▁nostal	-7487
▁alien	-7488
▁machinery	-7489
list	-7490
water	-7491
▁crowned	-7492
▁destroy	-7493
▁arrangements	-7494
▁bount	-7495
▁sacrifices	-7496
▁heartwarming	-7497
▁knowing	-7498
▁settled	-7499
▁haircut	-7500
▁surgeon	-7501
▁nationwide	-7502
▁scan	-7503
▁bear	-7504
▁inade	-7505
▁fer	-7506
▁sequ	-7507
▁traits	-7508
▁unconv	-7509
▁mosquit	-7510
▁paperwork	-7511
▁ow	-7512
▁follows	-7513
arity	-7514
▁bump	-7515
▁bikes	-7516
▁cattle	-7517
▁innovations	-7518
que	-7519
rows	-7520
▁dim	-7521
▁casino	-7522
▁convey	-7523
▁jewels	-7524
▁deliber	-7525
▁whistle	-7526
▁households	-7527
lest	-7528
▁deaf	-7529
deserved	-7530
▁exception	-7531
▁incom	-7532
▁valued	-7533
▁payment	-7534
▁refriger	-7535
▁throwing	-7536
▁traveled	-7537
▁disagreement	-7538
▁repub	-7539
▁motorists	-7540
▁specifically	-7541
pan	-7542
achers	-7543
▁fever	-7544
▁treaty	-7545
▁initially	-7546
▁companionship	-7547
▁inappropriate	-7548
▁synd	-7549
▁diagnosis	-7550
▁associated	-7551
▁bell	-7552
▁lie	-7553
▁conver	-7554
▁scenes	-7555
▁speculation	-7556
icked	-7557
▁glac	-7558
▁weeds	-7559
working	-7560
▁patrol	-7561
▁tenants	-7562
▁underwater	-7563
▁houses	-7564
▁stake	-7565
▁castle	-7566
▁tissue	-7567
▁glasses	-7568
▁forecasts	-7569
▁spiritual	-7570
▁occurrences	-7571
▁seemed	-7572
▁writer	-7573
▁burgers	-7574
▁botanists	-7575
▁refreshing	-7576
uten	-7577
▁pull	-7578
▁quot	-7579
▁manif	-7580
▁landsl	-7581
▁commuting	-7582
▁distillery	-7583
press	-7584
▁proof	-7585
ishable	-7586
▁botany	-7587
▁damages	-7588
▁fiction	-7589
ratic	-7590
▁mourn	-7591
▁cruelty	-7592
▁outfit	-7593
▁imaging	-7594
▁fulfill	-7595
▁sne	-7596
▁magical	-7597
▁oversee	-7598
anth	-7599
▁jog	-7600
▁mamm	-7601
▁chairs	-7602
▁meaningful	-7603
▁confidential	-7604
▁chair	-7605
▁hills	-7606
▁applied	-7607
▁fabrics	-7608
▁independent	-7609
▁dies	-7610
▁photo	-7611
anthrop	-7612
▁personnel	-7613
▁philanthrop	-7614
▁tract	-7615
▁offense	-7616
▁innocent	-7617
▁ador	-7618
▁appeared	-7619
▁compound	-7620
▁explored	-7621
▁inclusion	-7622
tever	-7623
▁floors	-7624
▁detective	-7625
▁agreements	-7626
▁prevention	-7627
▁appointments	-7628
▁setbacks	-7629
▁behold	-7630
▁tables	-7631
▁absolute	-7632
▁whatever	-7633
▁introduce	-7634
▁scrambling	-7635
▁preparedness	-7636
▁pret	-7637
▁vacuum	-7638
▁wreck	-7639
maintained	-7640
▁imagination	-7641
▁patri	-7642
▁stone	-7643
▁dignit	-7644
▁reforms	-7645
▁authentic	-7646
mate	-7647
▁rubble	-7648
▁states	-7649
▁voting	-7650
▁autonom	-7651
▁clinics	-7652
▁mild	-7653
▁scat	-7654
▁trim	-7655
▁unseasonable	-7656
▁rib	-7657
mother	-7658
▁mimic	-7659
▁encounter	-7660
▁intersection	-7661
▁rational	-7662
▁sandwiches	-7663
▁settlement	-7664
▁ruin	-7665
▁column	-7666
▁silence	-7667
▁displacement	-7668
▁tan	-7669
isticated	-7670
▁recharge	-7671
▁replacing	-7672
enues	-7673
▁soda	-7674
▁fright	-7675
▁misman	-7676
▁poison	-7677
▁settle	-7678
▁slippery	-7679
▁periods	-7680
▁recovered	-7681
▁workshop	-7682
▁trig	-7683
▁blooming	-7684
▁repealed	-7685
▁unconventional	-7686
▁asp	-7687
ckets	-7688
▁maps	-7689
▁raff	-7690
▁carpent	-7691
▁rehabilit	-7692
orry	-7693
▁ham	-7694
▁ticket	-7695
▁getaway	-7696
arant	-7697
azz	-7698
▁smiles	-7699
▁guarant	-7700
▁deployment	-7701
▁responsibly	-7702
▁murals	-7703
▁listened	-7704
▁storyline	-7705
▁chores	-7706
▁contra	-7707
▁picture	-7708
formation	-7709
born	-7710
onic	-7711
▁wore	-7712
▁squir	-7713
▁heading	-7714
▁victorious	-7715
▁embarrassed	-7716
ception	-7717
▁photography	-7718
▁consp	-7719
▁dismiss	-7720
▁monarch	-7721
▁blocking	-7722
aching	-7723
▁skate	-7724
▁daring	-7725
▁labels	-7726
▁crisp	-7727
▁bustle	-7728
▁dispos	-7729
▁therapies	-7730
▁sill	-7731
▁familiar	-7732
▁intimate	-7733
▁lineup	-7734
▁beneath	-7735
▁isolated	-7736
▁dw	-7737
▁depos	-7738
▁overt	-7739
▁window	-7740
reaching	-7741
▁debating	-7742
▁conqu	-7743
▁seconds	-7744
▁builders	-7745
▁minute	-7746
▁campers	-7747
▁shorter	-7748
▁entering	-7749
iter	-7750
▁obt	-7751
▁pla	-7752
tingu	-7753
▁canv	-7754
▁energ	-7755
▁gesture	-7756
▁artistic	-7757
▁army	-7758
▁drag	-7759
▁really	-7760
▁scrutiny	-7761
▁vint	-7762
atable	-7763
▁skyscraper	-7764
▁tub	-7765
▁judged	-7766
▁telescope	-7767
▁neut	-7768
▁holes	-7769
▁surfer	-7770
▁annually	-7771
▁dignitaries	-7772
▁distractions	-7773
bel	-7774
▁cakes	-7775
▁alternatives	-7776
▁humbled	-7777
▁severely	-7778
▁detectives	-7779
▁myth	-7780
▁prim	-7781
▁straw	-7782
▁embezzling	-7783
▁supplement	-7784
▁benc	-7785
▁cycle	-7786
▁singers	-7787
▁unsc	-7788
▁pamp	-7789
▁vintage	-7790
▁acceptance	-7791
amics	-7792
▁ghost	-7793
▁shaping	-7794
▁hole	-7795
▁vine	-7796
▁explos	-7797
▁detected	-7798
▁missions	-7799
▁tab	-7800
▁oral	-7801
▁wings	-7802
▁sourced	-7803
▁ownership	-7804
▁sidewalks	-7805
▁officially	-7806
cry	-7807
▁additions	-7808
▁showcased	-7809
▁translate	-7810
▁prediction	-7811
▁alley	-7812
▁boosts	-7813
▁imposed	-7814
▁advances	-7815
▁rigorous	-7816
▁distributing	-7817
▁originally	-7818
▁transformation	-7819
▁salads	-7820
▁tonight	-7821
▁trophy	-7822
▁predicts	-7823
▁challenged	-7824
▁erad	-7825
▁wage	-7826
▁twists	-7827
▁heroism	-7828
our	-7829
▁rect	-7830
▁landed	-7831
▁nights	-7832
sha	-7833
▁buyers	-7834
▁campus	-7835
pers	-7836
atoes	-7837
▁tolerance	-7838
pared	-7839
sty	-7840
▁bund	-7841
▁poem	-7842
onents	-7843
▁spray	-7844
▁cancell	-7845
▁saturday	-7846
▁weakness	-7847
▁maintained	-7848
▁ships	-7849
▁ultim	-7850
▁agricultural	-7851
▁hal	-7852
▁hust	-7853
▁unpre	-7854
▁quarter	-7855
▁dozens	-7856
▁fixing	-7857
▁hustle	-7858
▁inventory	-7859
isod	-7860
istas	-7861
▁admire	-7862
▁commem	-7863
▁benches	-7864
▁expression	-7865
boards	-7866
▁medal	-7867
▁calend	-7868
▁episod	-7869
▁scenarios	-7870
child	-7871
wered	-7872
▁drains	-7873
▁constantly	-7874
wr	-7875
▁surfers	-7876
▁prioritizing	-7877
▁installations	-7878
▁gala	-7879
▁sheds	-7880
▁reorgan	-7881
▁particles	-7882
asted	-7883
grown	-7884
▁epid	-7885
▁regret	-7886
▁elephan	-7887
▁bounc	-7888
▁herbs	-7889
▁epidem	-7890
▁merger	-7891
uous	-7892
alous	-7893
arium	-7894
icism	-7895
▁conte	-7896
▁spills	-7897
▁estimated	-7898
▁transplant	-7899
pher	-7900
▁helm	-7901
▁page	-7902
▁intel	-7903
▁toile	-7904
▁outlines	-7905
▁majority	-7906
▁switching	-7907
books	-7908
▁aging	-7909
▁selected	-7910
eless	-7911
▁behave	-7912
▁superm	-7913
▁recruits	-7914
icop	-7915
▁gum	-7916
▁gymn	-7917
▁trove	-7918
▁cookies	-7919
▁decides	-7920
▁helicop	-7921
▁massage	-7922
▁brighten	-7923
▁gig	-7924
▁mirac	-7925
▁crowded	-7926
▁emphasizes	-7927
▁permission	-7928
▁brink	-7929
▁testim	-7930
▁instinct	-7931
▁intellect	-7932
hor	-7933
▁mold	-7934
uition	-7935
▁gloss	-7936
▁containers	-7937
isons	-7938
▁aest	-7939
▁burglary	-7940
lined	-7941
▁reuse	-7942
▁laundry	-7943
▁presents	-7944
hop	-7945
▁irr	-7946
▁frid	-7947
▁grade	-7948
▁happens	-7949
▁seatbel	-7950
valu	-7951
▁aer	-7952
▁pigs	-7953
▁rage	-7954
▁ster	-7955
▁cheaper	-7956
▁biodivers	-7957
▁sophisticated	-7958
▁gut	-7959
▁closes	-7960
▁heating	-7961
wom	-7962
▁ecl	-7963
woman	-7964
▁loun	-7965
▁dental	-7966
▁taxpay	-7967
▁reservo	-7968
▁wandering	-7969
▁ultimately	-7970
▁cock	-7971
▁settings	-7972
▁disin	-7973
▁thrown	-7974
▁assignments	-7975
▁explained	-7976
▁pump	-7977
▁apprehe	-7978
▁extended	-7979
▁lengthy	-7980
▁bree	-7981
▁core	-7982
▁brother	-7983
▁fossils	-7984
▁interpret	-7985
▁incorporate	-7986
▁biodiversity	-7987
kind	-7988
▁note	-7989
▁riot	-7990
▁die	-7991
▁mir	-7992
▁endless	-7993
▁workload	-7994
▁tidy	-7995
arters	-7996
▁decay	-7997
▁prolong	-7998
▁recognizing	-7999
▁invasion	-8000
▁breakdown	-8001
▁punct	-8002
▁ignored	-8003
▁recyclable	-8004
▁repay	-8005
▁societ	-8006
▁sample	-8007
▁spicy	-8008
▁emails	-8009
▁covering	-8010
▁shipping	-8011
▁conj	-8012
▁ancest	-8013
▁motorist	-8014
▁trainers	-8015
▁afternoon	-8016
▁eliminate	-8017
ec	-8018
▁sque	-8019
▁telev	-8020
▁journe	-8021
▁contamin	-8022
▁prevented	-8023
▁interior	-8024
▁bel	-8025
▁unexpl	-8026
▁chanting	-8027
▁preschool	-8028
▁consideration	-8029
step	-8030
bility	-8031
▁audit	-8032
▁foster	-8033
▁mineral	-8034
▁checking	-8035
▁performer	-8036
▁cabin	-8037
▁diplomats	-8038
▁polluting	-8039
itivity	-8040
▁physic	-8041
▁reject	-8042
▁applicants	-8043
▁dair	-8044
▁ripp	-8045
▁cott	-8046
▁landlord	-8047
▁thunderst	-8048
▁violating	-8049
▁cler	-8050
father	-8051
▁amend	-8052
▁batch	-8053
▁seven	-8054
▁allegedly	-8055
▁relics	-8056
rist	-8057
▁swift	-8058
▁outfits	-8059
▁disputes	-8060
▁vegetarian	-8061
band	-8062
saving	-8063
▁accum	-8064
▁ignoring	-8065
▁manifest	-8066
▁overcoming	-8067
▁lung	-8068
stakes	-8069
▁erupt	-8070
▁resigned	-8071
▁demonstrations	-8072
▁chill	-8073
▁emerge	-8074
▁lifted	-8075
▁stretch	-8076
▁erupts	-8077
▁steady	-8078
▁complic	-8079
▁removal	-8080
▁smoother	-8081
▁robberies	-8082
▁profound	-8083
▁uncovers	-8084
▁sib	-8085
▁indul	-8086
▁boil	-8087
▁shad	-8088
▁foots	-8089
▁privat	-8090
▁cracked	-8091
▁harmony	-8092
arted	-8093
oming	-8094
teries	-8095
▁alter	-8096
▁immersive	-8097
▁distribution	-8098
▁oppos	-8099
▁splash	-8100
▁wither	-8101
▁advancements	-8102
▁miraculously	-8103
▁bones	-8104
▁percent	-8105
teps	-8106
▁toug	-8107
filled	-8108
▁wellness	-8109
▁footsteps	-8110
▁contaminants	-8111
ushes	-8112
▁abst	-8113
▁frame	-8114
▁lawyers	-8115
▁repeated	-8116
▁sentences	-8117
eared	-8118
▁tatt	-8119
▁chore	-8120
▁polar	-8121
roughts	-8122
▁filter	-8123
▁stored	-8124
▁digging	-8125
▁concrete	-8126
▁droughts	-8127
▁mysteries	-8128
▁testimony	-8129
▁absolutely	-8130
▁photographers	-8131
▁steel	-8132
entions	-8133
▁file	-8134
vering	-8135
▁aside	-8136
▁spell	-8137
▁hosted	-8138
▁destroying	-8139
▁nest	-8140
▁	-8141
e	-8142
t	-8143
a	-8144
i	-8145
n	-8146
o	-8147
s	-8148
r	-8149
h	-8150
d	-8151
l	-8152
c	-8153
u	-8154
p	-8155
m	-8156
g	-8157
f	-8158
w	-8159
y	-8160
b	-8161
.	-8162
v	-8163
k	-8164
,	-8165
x	-8166
'	-8167
j	-8168
q	-8169
z	-8170
-	-8171
